const unsigned char model[] = {
  0x20, 0x00, 0x00, 0x00, 0x54, 0x46, 0x4c, 0x33, 0x00, 0x00, 0x00, 0x00,
  0x14, 0x00, 0x20, 0x00, 0x1c, 0x00, 0x18, 0x00, 0x14, 0x00, 0x10, 0x00,
  0x0c, 0x00, 0x00, 0x00, 0x08, 0x00, 0x04, 0x00, 0x14, 0x00, 0x00, 0x00,
  0x1c, 0x00, 0x00, 0x00, 0x8c, 0x00, 0x00, 0x00, 0x0c, 0x01, 0x00, 0x00,
  0xcc, 0x10, 0x00, 0x00, 0xdc, 0x10, 0x00, 0x00, 0x90, 0x1c, 0x00, 0x00,
  0x03, 0x00, 0x00, 0x00, 0x01, 0x00, 0x00, 0x00, 0x04, 0x00, 0x00, 0x00,
  0x0a, 0xee, 0xff, 0xff, 0x0c, 0x00, 0x00, 0x00, 0x1c, 0x00, 0x00, 0x00,
  0x3c, 0x00, 0x00, 0x00, 0x0f, 0x00, 0x00, 0x00, 0x73, 0x65, 0x72, 0x76,
  0x69, 0x6e, 0x67, 0x5f, 0x64, 0x65, 0x66, 0x61, 0x75, 0x6c, 0x74, 0x00,
  0x01, 0x00, 0x00, 0x00, 0x04, 0x00, 0x00, 0x00, 0x68, 0xff, 0xff, 0xff,
  0x0f, 0x00, 0x00, 0x00, 0x04, 0x00, 0x00, 0x00, 0x08, 0x00, 0x00, 0x00,
  0x6f, 0x75, 0x74, 0x70, 0x75, 0x74, 0x5f, 0x30, 0x00, 0x00, 0x00, 0x00,
  0x01, 0x00, 0x00, 0x00, 0x04, 0x00, 0x00, 0x00, 0xee, 0xee, 0xff, 0xff,
  0x04, 0x00, 0x00, 0x00, 0x0f, 0x00, 0x00, 0x00, 0x6b, 0x65, 0x72, 0x61,
  0x73, 0x5f, 0x74, 0x65, 0x6e, 0x73, 0x6f, 0x72, 0x5f, 0x32, 0x38, 0x00,
  0x03, 0x00, 0x00, 0x00, 0x5c, 0x00, 0x00, 0x00, 0x2c, 0x00, 0x00, 0x00,
  0x04, 0x00, 0x00, 0x00, 0xb8, 0xff, 0xff, 0xff, 0x13, 0x00, 0x00, 0x00,
  0x04, 0x00, 0x00, 0x00, 0x13, 0x00, 0x00, 0x00, 0x43, 0x4f, 0x4e, 0x56,
  0x45, 0x52, 0x53, 0x49, 0x4f, 0x4e, 0x5f, 0x4d, 0x45, 0x54, 0x41, 0x44,
  0x41, 0x54, 0x41, 0x00, 0xdc, 0xff, 0xff, 0xff, 0x12, 0x00, 0x00, 0x00,
  0x04, 0x00, 0x00, 0x00, 0x13, 0x00, 0x00, 0x00, 0x6d, 0x69, 0x6e, 0x5f,
  0x72, 0x75, 0x6e, 0x74, 0x69, 0x6d, 0x65, 0x5f, 0x76, 0x65, 0x72, 0x73,
  0x69, 0x6f, 0x6e, 0x00, 0x08, 0x00, 0x0c, 0x00, 0x08, 0x00, 0x04, 0x00,
  0x08, 0x00, 0x00, 0x00, 0x11, 0x00, 0x00, 0x00, 0x04, 0x00, 0x00, 0x00,
  0x13, 0x00, 0x00, 0x00, 0x6d, 0x69, 0x6e, 0x5f, 0x72, 0x75, 0x6e, 0x74,
  0x69, 0x6d, 0x65, 0x5f, 0x76, 0x65, 0x72, 0x73, 0x69, 0x6f, 0x6e, 0x00,
  0x14, 0x00, 0x00, 0x00, 0xbc, 0x0f, 0x00, 0x00, 0xb4, 0x0f, 0x00, 0x00,
  0x9c, 0x0f, 0x00, 0x00, 0x84, 0x0f, 0x00, 0x00, 0x64, 0x0f, 0x00, 0x00,
  0x34, 0x0f, 0x00, 0x00, 0x24, 0x02, 0x00, 0x00, 0xf4, 0x01, 0x00, 0x00,
  0xf4, 0x00, 0x00, 0x00, 0xec, 0x00, 0x00, 0x00, 0xe4, 0x00, 0x00, 0x00,
  0xdc, 0x00, 0x00, 0x00, 0xd4, 0x00, 0x00, 0x00, 0xcc, 0x00, 0x00, 0x00,
  0xc4, 0x00, 0x00, 0x00, 0xbc, 0x00, 0x00, 0x00, 0xb4, 0x00, 0x00, 0x00,
  0x94, 0x00, 0x00, 0x00, 0x74, 0x00, 0x00, 0x00, 0x04, 0x00, 0x00, 0x00,
  0xe2, 0xef, 0xff, 0xff, 0x04, 0x00, 0x00, 0x00, 0x60, 0x00, 0x00, 0x00,
  0x0c, 0x00, 0x00, 0x00, 0x08, 0x00, 0x0e, 0x00, 0x08, 0x00, 0x04, 0x00,
  0x08, 0x00, 0x00, 0x00, 0x10, 0x00, 0x00, 0x00, 0x28, 0x00, 0x00, 0x00,
  0x00, 0x00, 0x06, 0x00, 0x08, 0x00, 0x04, 0x00, 0x06, 0x00, 0x00, 0x00,
  0x04, 0x00, 0x00, 0x00, 0x01, 0x00, 0x00, 0x00, 0xeb, 0x03, 0x00, 0x00,
  0x0c, 0x00, 0x18, 0x00, 0x14, 0x00, 0x10, 0x00, 0x0c, 0x00, 0x04, 0x00,
  0x0c, 0x00, 0x00, 0x00, 0x81, 0xb3, 0x06, 0xff, 0x16, 0xde, 0xff, 0x56,
  0x02, 0x00, 0x00, 0x00, 0x02, 0x00, 0x00, 0x00, 0x04, 0x00, 0x00, 0x00,
  0x06, 0x00, 0x00, 0x00, 0x32, 0x2e, 0x31, 0x37, 0x2e, 0x30, 0x00, 0x00,
  0x4e, 0xf0, 0xff, 0xff, 0x04, 0x00, 0x00, 0x00, 0x10, 0x00, 0x00, 0x00,
  0x00, 0x00, 0x00, 0x00, 0x00, 0x00, 0x00, 0x00, 0x00, 0x00, 0x00, 0x00,
  0x00, 0x00, 0x00, 0x00, 0x6a, 0xf0, 0xff, 0xff, 0x04, 0x00, 0x00, 0x00,
  0x10, 0x00, 0x00, 0x00, 0x31, 0x2e, 0x31, 0x34, 0x2e, 0x30, 0x00, 0x00,
  0x00, 0x00, 0x00, 0x00, 0x00, 0x00, 0x00, 0x00, 0xac, 0xe5, 0xff, 0xff,
  0xb0, 0xe5, 0xff, 0xff, 0xb4, 0xe5, 0xff, 0xff, 0xb8, 0xe5, 0xff, 0xff,
  0xbc, 0xe5, 0xff, 0xff, 0xc0, 0xe5, 0xff, 0xff, 0xc4, 0xe5, 0xff, 0xff,
  0xc8, 0xe5, 0xff, 0xff, 0xa6, 0xf0, 0xff, 0xff, 0x04, 0x00, 0x00, 0x00,
  0xf0, 0x00, 0x00, 0x00, 0x96, 0xac, 0x2e, 0x92, 0x34, 0xc3, 0xff, 0x5a,
  0x3a, 0x68, 0xb9, 0xe5, 0xfb, 0x43, 0x08, 0x55, 0x39, 0x60, 0xda, 0xff,
  0x23, 0xd1, 0xa7, 0x64, 0x49, 0x81, 0xf9, 0xb4, 0xd6, 0xc3, 0xf0, 0xd2,
  0x5a, 0xc5, 0x6d, 0x4f, 0x45, 0x0c, 0x9d, 0xee, 0x69, 0x70, 0x9c, 0x6d,
  0x7f, 0x2f, 0x9a, 0x3c, 0x10, 0x58, 0xe8, 0x17, 0x5d, 0xec, 0x30, 0x53,
  0xf7, 0x4a, 0x09, 0x7c, 0xc3, 0xdc, 0xc5, 0x81, 0xc4, 0xfa, 0x52, 0x05,
  0xe6, 0xf7, 0x54, 0x47, 0x99, 0x5b, 0xa0, 0x6e, 0x56, 0x99, 0xdc, 0x5f,
  0xaf, 0xea, 0xb4, 0xf2, 0xa7, 0x4c, 0x28, 0xc5, 0xb7, 0x6e, 0x17, 0x18,
  0x41, 0x5d, 0x09, 0xec, 0x36, 0xe1, 0xde, 0xa9, 0x3d, 0x2f, 0xa5, 0xe3,
  0x9c, 0x94, 0x37, 0xcb, 0x91, 0x69, 0x2a, 0x06, 0xe6, 0x4c, 0x4e, 0x88,
  0x4c, 0x7f, 0x8d, 0xac, 0x65, 0x14, 0x34, 0xac, 0x51, 0xcd, 0xfc, 0xfa,
  0xe9, 0xdf, 0xbf, 0x4f, 0x2d, 0xd4, 0x6c, 0x81, 0x15, 0x0d, 0xb7, 0x1c,
  0xe0, 0x25, 0x5d, 0xb0, 0x4b, 0xcd, 0x0d, 0x3d, 0xb5, 0xb1, 0x1b, 0xeb,
  0x29, 0xd0, 0xd9, 0xe3, 0xcd, 0x04, 0xab, 0x4a, 0x30, 0xc5, 0x04, 0x69,
  0x88, 0x4c, 0xb2, 0xf5, 0xb9, 0xd9, 0x71, 0x22, 0x32, 0x7f, 0xb0, 0xbb,
  0x6c, 0x1f, 0x1e, 0xa9, 0x4b, 0x25, 0xdb, 0xfa, 0x1a, 0xb7, 0xc5, 0x8c,
  0xed, 0x54, 0x32, 0xc1, 0x73, 0x31, 0x06, 0xc1, 0x1b, 0x61, 0xab, 0x63,
  0x27, 0xda, 0xb9, 0xb6, 0x14, 0xf1, 0x2c, 0xd2, 0x81, 0x69, 0x59, 0xd7,
  0xed, 0x3c, 0xd7, 0xe7, 0x50, 0xe1, 0x62, 0xa5, 0x2b, 0xec, 0xde, 0xb5,
  0x48, 0xf6, 0x3e, 0x04, 0x21, 0xd0, 0x81, 0x93, 0x75, 0xd6, 0xda, 0x52,
  0x27, 0x06, 0xa3, 0x22, 0xa2, 0xf1, 0xff, 0xff, 0x04, 0x00, 0x00, 0x00,
  0x20, 0x00, 0x00, 0x00, 0x1b, 0xfa, 0xff, 0xff, 0x29, 0xf6, 0xff, 0xff,
  0x72, 0xf7, 0xff, 0xff, 0xdf, 0x17, 0x00, 0x00, 0xcb, 0xfe, 0xff, 0xff,
  0x4f, 0x01, 0x00, 0x00, 0x6b, 0xfa, 0xff, 0xff, 0x82, 0xfc, 0xff, 0xff,
  0xce, 0xf1, 0xff, 0xff, 0x04, 0x00, 0x00, 0x00, 0x00, 0x0d, 0x00, 0x00,
  0x08, 0x21, 0x1d, 0x81, 0x0a, 0xeb, 0xfb, 0xf8, 0x32, 0x1e, 0x12, 0x2f,
  0x12, 0xf1, 0xdb, 0xe5, 0x02, 0x11, 0xd0, 0xe9, 0x24, 0x07, 0xdf, 0x0a,
  0xc8, 0x02, 0xd7, 0xe9, 0xf3, 0xdf, 0x17, 0x18, 0xd4, 0xed, 0xeb, 0xf6,
  0x10, 0xd5, 0xfc, 0x12, 0xfd, 0x21, 0xc6, 0xf8, 0xe7, 0xe1, 0x0b, 0x20,
  0xce, 0x1a, 0xd3, 0xbd, 0xe8, 0xe9, 0xe3, 0x02, 0xe0, 0xf0, 0xf0, 0xd6,
  0xd8, 0xe8, 0xd5, 0xeb, 0xf7, 0xfc, 0xc0, 0xde, 0xe9, 0xe3, 0xfa, 0xdd,
  0xeb, 0x29, 0xc5, 0xb9, 0xdb, 0xcc, 0xbd, 0xf5, 0xc1, 0x0d, 0xc0, 0xb9,
  0xc8, 0xa4, 0xf7, 0xde, 0xe3, 0x11, 0xbd, 0xc4, 0xe7, 0xa9, 0xe5, 0xe5,
  0xc4, 0x10, 0xd6, 0xb2, 0xcd, 0xcb, 0xc9, 0xed, 0xe1, 0x20, 0xcf, 0xea,
  0xad, 0xbc, 0xe0, 0xdd, 0xed, 0x19, 0xde, 0xd7, 0xd9, 0xa9, 0xe3, 0x14,
  0xc1, 0x27, 0xf7, 0xcb, 0xe5, 0xb4, 0xd5, 0xe9, 0xef, 0x0c, 0xd5, 0xe0,
  0xe6, 0xb7, 0xbe, 0xdc, 0xd4, 0xfb, 0xe3, 0xf6, 0xae, 0xae, 0xec, 0xfd,
  0xe3, 0x21, 0xdd, 0xbe, 0xe1, 0x9e, 0xed, 0x04, 0xbd, 0xf3, 0xc6, 0xe3,
  0xd1, 0xcb, 0xf0, 0xd7, 0xfa, 0xf0, 0xbf, 0xe7, 0xb4, 0xcb, 0xeb, 0x03,
  0xeb, 0x0f, 0xd8, 0xe0, 0xd2, 0xaa, 0xe9, 0x11, 0xc4, 0x12, 0xdb, 0xd9,
  0xb9, 0xde, 0xd9, 0xd9, 0xe3, 0x17, 0xfc, 0x04, 0xd4, 0xbc, 0xb4, 0xe3,
  0xd6, 0xff, 0xcf, 0xe5, 0xbf, 0xdd, 0xef, 0xf2, 0xe3, 0x20, 0xdb, 0xdc,
  0xb5, 0xa4, 0xd5, 0x0c, 0x01, 0xf1, 0xf6, 0xd8, 0xb5, 0xc1, 0xc3, 0xe6,
  0xc7, 0xfa, 0xeb, 0xe2, 0xcc, 0xc3, 0xd7, 0xfc, 0xde, 0x24, 0xd0, 0xeb,
  0xae, 0xbc, 0xd6, 0x08, 0xe5, 0xef, 0xee, 0xed, 0xb4, 0xaa, 0xbc, 0xf8,
  0xe1, 0xe9, 0xd7, 0xfc, 0xd3, 0xba, 0xcf, 0xfe, 0xf3, 0x09, 0xd9, 0xe6,
  0xc3, 0xbe, 0xc3, 0x09, 0xfc, 0xed, 0xf4, 0xe5, 0xa9, 0xa3, 0xc8, 0xda,
  0xf9, 0xf2, 0xec, 0xd9, 0xc8, 0xcd, 0xc6, 0xd1, 0xea, 0x1b, 0xd5, 0xc4,
  0xc8, 0x8f, 0xc3, 0xe1, 0xce, 0x25, 0xd7, 0xde, 0xc1, 0xc6, 0xa7, 0xe2,
  0xc4, 0x15, 0xe4, 0xcd, 0xe6, 0xae, 0xd9, 0xed, 0xff, 0x07, 0xf4, 0x13,
  0xdc, 0xaf, 0xbe, 0x00, 0xdf, 0x22, 0xde, 0x27, 0xbf, 0xa7, 0xe0, 0xe2,
  0x07, 0x24, 0xf0, 0x31, 0xdd, 0xcc, 0xd5, 0x02, 0x0e, 0x1b, 0xd2, 0x1e,
  0xdc, 0xcd, 0xcd, 0x0c, 0xdc, 0xec, 0xe9, 0x34, 0xc5, 0xe2, 0x17, 0xeb,
  0x19, 0xfd, 0xf0, 0x35, 0xd4, 0xe8, 0xfa, 0xf9, 0xed, 0x0e, 0x0f, 0x31,
  0xdd, 0xc4, 0x20, 0x22, 0xfd, 0x02, 0xe0, 0x3f, 0xec, 0xf5, 0x20, 0xe8,
  0x1a, 0xf7, 0x0b, 0x37, 0x0e, 0xe6, 0x00, 0x07, 0xde, 0x0e, 0xf6, 0x2e,
  0x1b, 0x15, 0x25, 0x0c, 0xe4, 0x1d, 0x0c, 0x3c, 0xfe, 0x0f, 0x22, 0xfb,
  0x08, 0xfc, 0xf9, 0x3f, 0x0b, 0xf8, 0x02, 0x08, 0xfb, 0x1f, 0x24, 0x2f,
  0x28, 0x24, 0xff, 0x08, 0x0b, 0x23, 0xf9, 0xfe, 0xf0, 0x03, 0x24, 0x02,
  0xff, 0x08, 0x1a, 0xed, 0x1a, 0x25, 0x13, 0x02, 0xdf, 0x5b, 0xb4, 0x00,
  0x2d, 0xf0, 0xc5, 0xd3, 0x29, 0x06, 0xc9, 0xaa, 0x06, 0x1b, 0x50, 0xbf,
  0x98, 0x32, 0x0d, 0xbc, 0xad, 0x8b, 0x31, 0x4e, 0xdf, 0x31, 0xbb, 0x9e,
  0x9f, 0x67, 0x09, 0x65, 0x44, 0xd6, 0x9f, 0xe7, 0x15, 0xad, 0x9f, 0xa7,
  0xf7, 0x6b, 0xde, 0x42, 0xf0, 0x02, 0xe2, 0xed, 0x90, 0x1e, 0x08, 0xff,
  0x3e, 0x14, 0xd2, 0xf6, 0x38, 0x32, 0x21, 0xb3, 0x4d, 0x02, 0x63, 0x45,
  0xcd, 0xc0, 0xb9, 0x3b, 0x95, 0x22, 0xba, 0x53, 0xc2, 0xab, 0xa5, 0x41,
  0x03, 0xa9, 0xa1, 0x4c, 0xc6, 0x68, 0xc8, 0x56, 0xe1, 0x50, 0xa7, 0x90,
  0x62, 0xf2, 0xd5, 0x12, 0x8f, 0xd3, 0xdc, 0x38, 0xad, 0xac, 0xdb, 0xec,
  0x1d, 0x9d, 0x34, 0x86, 0xdb, 0x88, 0xf7, 0x2c, 0xdd, 0xf0, 0x07, 0xbc,
  0xe4, 0x51, 0x28, 0x5a, 0x49, 0xf8, 0x1d, 0xdf, 0xc6, 0x92, 0xce, 0x64,
  0x17, 0x47, 0xbd, 0xc5, 0x9d, 0xd2, 0xa2, 0x62, 0xfd, 0x29, 0x04, 0xb9,
  0x27, 0x3a, 0x49, 0xbf, 0x37, 0x69, 0x3f, 0x2b, 0x5d, 0xfa, 0x96, 0x6b,
  0x3c, 0x16, 0xd3, 0x0d, 0xfe, 0xd7, 0x92, 0xf1, 0xf3, 0xc8, 0xfe, 0xd3,
  0x3a, 0x2f, 0x54, 0x0c, 0x45, 0x20, 0x8d, 0x3a, 0x59, 0x5a, 0xd9, 0xd1,
  0xe3, 0x3d, 0x87, 0xe0, 0xe2, 0xcf, 0xe5, 0xfa, 0xe9, 0x9b, 0xbe, 0x2f,
  0x4a, 0x05, 0x33, 0xa6, 0xe1, 0xd6, 0x2a, 0x52, 0x53, 0x9c, 0x86, 0xcf,
  0x30, 0x87, 0xa4, 0xe4, 0xda, 0x02, 0xe4, 0xce, 0xd9, 0xb7, 0x11, 0x89,
  0xe4, 0x26, 0xc9, 0x27, 0xce, 0xd7, 0x48, 0x53, 0x49, 0x38, 0x12, 0xfe,
  0x20, 0xd0, 0x40, 0xa5, 0x60, 0x81, 0xb9, 0xb5, 0xb2, 0xab, 0x36, 0xf2,
  0xa8, 0xab, 0x3d, 0xac, 0xde, 0xbe, 0xf1, 0x54, 0xb6, 0xcd, 0x4a, 0x47,
  0x44, 0x3d, 0xd3, 0xdc, 0x12, 0x86, 0xf8, 0xe0, 0x5d, 0xa1, 0x0f, 0x1f,
  0x55, 0xa3, 0x41, 0x8f, 0x37, 0x1a, 0x9c, 0x69, 0x62, 0x94, 0xff, 0xe2,
  0xaf, 0xf1, 0xb3, 0x0e, 0x49, 0x90, 0xca, 0xf2, 0xb8, 0x29, 0xee, 0x9d,
  0xd2, 0x15, 0xa9, 0xa5, 0xa7, 0x8c, 0x4a, 0xf5, 0xa4, 0x8c, 0x71, 0xb9,
  0xcc, 0x07, 0xa2, 0x8f, 0x21, 0x99, 0xfe, 0xeb, 0x30, 0x4b, 0x00, 0x36,
  0xc5, 0xe2, 0x4b, 0x15, 0x4f, 0x98, 0x8d, 0xa2, 0xb1, 0x5c, 0x36, 0xbc,
  0xc1, 0x89, 0xd5, 0xfd, 0x98, 0xa3, 0xa4, 0x05, 0x68, 0xe8, 0x85, 0x61,
  0xc5, 0x4f, 0x47, 0xb7, 0x96, 0x94, 0xd2, 0xe3, 0x04, 0x35, 0x55, 0x8a,
  0xe6, 0x14, 0x68, 0xfb, 0x23, 0x05, 0xad, 0x47, 0x2b, 0xf9, 0xd6, 0xae,
  0x06, 0x08, 0x10, 0x6b, 0xa1, 0x6b, 0x15, 0xc2, 0x49, 0x50, 0xf4, 0x2b,
  0x16, 0x9c, 0x43, 0x42, 0x32, 0xc0, 0x98, 0xf6, 0x29, 0x06, 0xe4, 0x1b,
  0x27, 0x0a, 0xb4, 0x50, 0xa8, 0x3f, 0xb9, 0x0c, 0x22, 0x59, 0xfe, 0xc1,
  0x43, 0x88, 0xde, 0xf4, 0x8e, 0x8b, 0x1b, 0x49, 0x8f, 0xcd, 0x60, 0xf6,
  0xd8, 0xc0, 0x4b, 0xdd, 0x67, 0x81, 0xf6, 0xd4, 0x82, 0xc9, 0xdc, 0xe7,
  0x59, 0x67, 0xcf, 0x1f, 0x0f, 0xf4, 0xee, 0x7f, 0x0e, 0x10, 0xec, 0x07,
  0xfe, 0x04, 0x08, 0xf1, 0x01, 0xf3, 0x31, 0x13, 0x25, 0xf3, 0x1a, 0x22,
  0xe8, 0x14, 0x04, 0x03, 0x11, 0xe9, 0x3a, 0x14, 0x05, 0x07, 0x0e, 0x12,
  0x1e, 0x0b, 0x37, 0x2b, 0x23, 0x2a, 0x09, 0x0e, 0x0b, 0xea, 0x2d, 0x37,
  0x24, 0x1d, 0x1a, 0xf2, 0x26, 0xfc, 0x25, 0x21, 0x04, 0x1b, 0xf9, 0x1c,
  0x3a, 0xfd, 0x39, 0x0f, 0x20, 0x21, 0x2a, 0xff, 0x20, 0x09, 0x32, 0x3d,
  0x35, 0x4a, 0x2f, 0x1d, 0x35, 0x05, 0x14, 0x18, 0x2e, 0x3e, 0x28, 0x22,
  0x11, 0x10, 0x3a, 0x27, 0x21, 0x29, 0x1b, 0x22, 0x10, 0xf6, 0x2f, 0x44,
  0x3b, 0x53, 0x36, 0x27, 0x1c, 0xe9, 0x1f, 0x22, 0x46, 0x3a, 0x3a, 0x00,
  0x1f, 0xe7, 0x2d, 0x20, 0x46, 0x31, 0x2a, 0x03, 0x27, 0x13, 0x27, 0x3c,
  0x1e, 0x4d, 0x27, 0x20, 0x3a, 0x0a, 0x24, 0x4a, 0x33, 0x2a, 0x23, 0x2c,
  0x23, 0x11, 0x1f, 0x32, 0x37, 0x3b, 0x2d, 0x12, 0x16, 0xf2, 0x16, 0x38,
  0x2e, 0x2c, 0x49, 0x20, 0x19, 0xee, 0x17, 0x32, 0x40, 0x57, 0x47, 0x27,
  0x33, 0x12, 0x2e, 0x2c, 0x41, 0x46, 0x27, 0x21, 0x18, 0xec, 0x2e, 0x37,
  0x36, 0x44, 0x4a, 0x09, 0x25, 0xf5, 0x3a, 0x2b, 0x26, 0x56, 0x25, 0x1c,
  0x11, 0x02, 0x39, 0x1c, 0x31, 0x48, 0x37, 0x05, 0x20, 0x12, 0x3a, 0x2c,
  0x34, 0x4d, 0x2c, 0x0a, 0x22, 0x03, 0x13, 0x3a, 0x4e, 0x42, 0x31, 0x0b,
  0x0b, 0x03, 0x20, 0x1c, 0x26, 0x31, 0x4f, 0x2d, 0x23, 0x08, 0x11, 0x1a,
  0x36, 0x3e, 0x3f, 0x2d, 0x13, 0xee, 0x11, 0x31, 0x27, 0x2f, 0x3c, 0x30,
  0x09, 0xff, 0x41, 0x3e, 0x2b, 0x46, 0x32, 0x05, 0x19, 0xfb, 0x3d, 0x21,
  0x4c, 0x3d, 0x34, 0x23, 0x2e, 0xf3, 0x33, 0x1e, 0x45, 0x3d, 0x46, 0x19,
  0x2b, 0xf0, 0x1b, 0x49, 0x4e, 0x47, 0x36, 0x31, 0x0b, 0xe4, 0x33, 0x39,
  0x50, 0x4c, 0x4a, 0x2e, 0x0f, 0x10, 0x2a, 0x39, 0x3f, 0x57, 0x33, 0x11,
  0x31, 0x02, 0x2c, 0x0d, 0x50, 0x35, 0x38, 0x16, 0x1e, 0x0e, 0x2b, 0x2a,
  0x49, 0x4c, 0x44, 0x27, 0x15, 0x09, 0x29, 0x19, 0x44, 0x3d, 0x2c, 0x1c,
  0x24, 0xf3, 0x13, 0xfc, 0x49, 0x59, 0x3c, 0x23, 0x07, 0xff, 0x25, 0xed,
  0x3a, 0x39, 0x2d, 0x05, 0x15, 0x04, 0x15, 0x07, 0x18, 0x45, 0x15, 0xfa,
  0x07, 0xfb, 0x02, 0xeb, 0x27, 0x34, 0x0a, 0x13, 0xf8, 0x0e, 0x07, 0xf9,
  0x0d, 0x1e, 0xfb, 0xf3, 0xf8, 0xfd, 0x23, 0xd0, 0x13, 0x2c, 0xf2, 0x0c,
  0xf5, 0xf0, 0x0f, 0xc4, 0x11, 0x15, 0xec, 0x18, 0xfe, 0x0f, 0x13, 0xe2,
  0xf8, 0x25, 0x04, 0x05, 0x11, 0xe8, 0x10, 0xcc, 0xfc, 0x07, 0xf7, 0xed,
  0x05, 0xed, 0xfe, 0xe2, 0xff, 0x23, 0xea, 0x0b, 0xfc, 0x00, 0x1c, 0xd4,
  0x0d, 0x18, 0xea, 0xfe, 0xff, 0x0f, 0x0b, 0xdf, 0xee, 0x10, 0xee, 0x04,
  0xeb, 0x0e, 0x0f, 0xe6, 0xe5, 0x02, 0x07, 0xec, 0xea, 0x01, 0xf3, 0xe4,
  0x03, 0xe3, 0xea, 0xec, 0x03, 0xff, 0xeb, 0x0f, 0xfe, 0xff, 0x14, 0xea,
  0xf8, 0x12, 0xe9, 0x7f, 0xdd, 0xf0, 0xfe, 0xfa, 0x09, 0xde, 0x03, 0xfb,
  0xf5, 0xf5, 0x0c, 0xec, 0x28, 0xda, 0x31, 0x0c, 0xff, 0x14, 0x0f, 0xe7,
  0x36, 0x10, 0x53, 0x36, 0xeb, 0x2c, 0xe8, 0xfc, 0x41, 0x16, 0x4c, 0x23,
  0x28, 0x10, 0xf3, 0xeb, 0x26, 0x06, 0x4c, 0x49, 0x36, 0x24, 0x02, 0x22,
  0x16, 0xf0, 0x1b, 0x46, 0x3f, 0x37, 0x11, 0xf6, 0x38, 0xf2, 0x20, 0x21,
  0x0c, 0x2c, 0x10, 0x15, 0x15, 0xf6, 0x4a, 0x3c, 0x30, 0x5a, 0x18, 0xf7,
  0x22, 0x17, 0x3c, 0x52, 0x38, 0x6a, 0x51, 0xff, 0x14, 0xf4, 0x4c, 0x46,
  0x26, 0x57, 0x4e, 0x26, 0x4b, 0x01, 0x3e, 0x4a, 0x25, 0x6b, 0x5d, 0x0e,
  0x3b, 0xea, 0x57, 0x66, 0x62, 0x4f, 0x40, 0x2f, 0x1b, 0xf1, 0x54, 0x38,
  0x39, 0x7d, 0x64, 0x16, 0x15, 0xff, 0x3d, 0x36, 0x35, 0x53, 0x6b, 0x35,
  0x38, 0x0e, 0x4e, 0x35, 0x41, 0x42, 0x56, 0x1f, 0x37, 0xf4, 0x3b, 0x57,
  0x4b, 0x45, 0x6a, 0x22, 0x35, 0x03, 0x23, 0x37, 0x42, 0x5f, 0x59, 0x43,
  0x1f, 0xf1, 0x30, 0x47, 0x5c, 0x56, 0x6d, 0x10, 0x2f, 0x0e, 0x1e, 0x56,
  0x44, 0x69, 0x3a, 0x2f, 0x37, 0xfd, 0x49, 0x51, 0x6e, 0x5e, 0x39, 0x2e,
  0x25, 0xf3, 0x42, 0x32, 0x42, 0x48, 0x6d, 0x30, 0x18, 0x0a, 0x1d, 0x39,
  0x43, 0x53, 0x2d, 0x3e, 0x25, 0x07, 0x33, 0x27, 0x38, 0x56, 0x5b, 0x39,
  0x4b, 0xe2, 0x1d, 0x50, 0x58, 0x76, 0x5b, 0x02, 0x1e, 0xe8, 0x32, 0x2b,
  0x4e, 0x41, 0x5a, 0x40, 0x42, 0xe3, 0x4c, 0x60, 0x42, 0x45, 0x41, 0x2e,
  0x1a, 0x0d, 0x54, 0x26, 0x3a, 0x76, 0x46, 0x06, 0x29, 0xe1, 0x24, 0x2a,
  0x50, 0x71, 0x3c, 0x08, 0x3f, 0xf4, 0x4b, 0x3e, 0x45, 0x79, 0x6d, 0x20,
  0x19, 0xd9, 0x38, 0x3d, 0x63, 0x6f, 0x67, 0x2d, 0x25, 0x1c, 0x3c, 0x53,
  0x60, 0x6c, 0x6d, 0x26, 0x42, 0xdf, 0x35, 0x58, 0x47, 0x74, 0x3b, 0x2f,
  0x0c, 0x13, 0x26, 0x2e, 0x6f, 0x7f, 0x65, 0x24, 0x31, 0xf8, 0x3f, 0x19,
  0x72, 0x72, 0x41, 0x20, 0x38, 0x18, 0x22, 0x15, 0x41, 0x75, 0x4e, 0x04,
  0x37, 0x06, 0x43, 0xfc, 0x69, 0x79, 0x4d, 0x11, 0x2e, 0x11, 0x42, 0x24,
  0x34, 0x6e, 0x5f, 0x1f, 0x35, 0xf9, 0x1f, 0xe5, 0x30, 0x6f, 0x41, 0x0b,
  0x12, 0x11, 0x24, 0xd3, 0x4d, 0x4f, 0x31, 0x30, 0x21, 0x05, 0x0e, 0x03,
  0x3f, 0x24, 0x0f, 0x12, 0x17, 0x0a, 0x17, 0xe4, 0x2b, 0x43, 0xed, 0xea,
  0xf4, 0xfd, 0x01, 0xcc, 0x1f, 0x4c, 0x05, 0x05, 0xf8, 0xfc, 0x21, 0xd8,
  0x2a, 0x2d, 0x03, 0x07, 0x1a, 0x14, 0x00, 0xac, 0x0e, 0x26, 0xf0, 0x04,
  0xf9, 0x0c, 0x23, 0xa3, 0xed, 0x28, 0x1c, 0x00, 0x20, 0xe0, 0x24, 0xa6,
  0xec, 0xf3, 0x11, 0xe3, 0x1c, 0xde, 0x24, 0xa9, 0xe0, 0xfe, 0xe6, 0x19,
  0x15, 0xfb, 0x00, 0xb7, 0xfc, 0x1c, 0x12, 0xe9, 0xd6, 0x18, 0x23, 0xed,
  0xf0, 0x06, 0x0d, 0x12, 0x0c, 0x03, 0xf6, 0xe1, 0xe5, 0xfc, 0x10, 0x07,
  0x11, 0xea, 0xc5, 0x12, 0x0b, 0x01, 0x10, 0x00, 0x1d, 0x26, 0x2c, 0xb0,
  0x1c, 0x07, 0x28, 0x1b, 0x1d, 0x20, 0x09, 0x05, 0x0b, 0x23, 0xdc, 0x0d,
  0xbe, 0x28, 0xc9, 0xe3, 0xfc, 0xe7, 0x04, 0xe6, 0xe4, 0x28, 0xca, 0xbe,
  0xec, 0xbb, 0xe8, 0xda, 0xe0, 0x2c, 0xdc, 0xc6, 0xee, 0xb2, 0xe4, 0xdf,
  0xf1, 0x1c, 0xf2, 0xce, 0xc8, 0xab, 0xcf, 0xdb, 0xb9, 0x04, 0xe1, 0xda,
  0xda, 0xb5, 0xf6, 0xeb, 0xcd, 0x10, 0xc4, 0xb8, 0xc0, 0xb9, 0xd4, 0xda,
  0xce, 0x05, 0xb8, 0xd4, 0xae, 0xba, 0xca, 0xda, 0xcf, 0x14, 0xe0, 0xda,
  0xc2, 0xa1, 0xce, 0xd0, 0xc3, 0xf7, 0xd3, 0xb1, 0xc5, 0xb1, 0xc7, 0xaf,
  0xe5, 0xf2, 0xdf, 0xb3, 0xbe, 0x9c, 0xb9, 0xb3, 0xd4, 0x1b, 0xd0, 0xac,
  0x98, 0xb1, 0xd1, 0xce, 0xd2, 0x1a, 0xd1, 0xcc, 0xa7, 0xb9, 0x9d, 0xc4,
  0xd0, 0xf5, 0xb5, 0xbe, 0xb7, 0xb4, 0x9c, 0xd0, 0xd3, 0x1f, 0xe9, 0xe5,
  0xb6, 0xbc, 0xc8, 0xd5, 0xe0, 0x23, 0xd4, 0xd9, 0xad, 0x81, 0xb4, 0xb4,
  0xd7, 0xfa, 0xc8, 0xed, 0xc4, 0x83, 0xa6, 0xdd, 0xd9, 0x1a, 0xc8, 0xf5,
  0x9b, 0x99, 0xa5, 0xd0, 0xc3, 0x0d, 0xc1, 0xc4, 0xbc, 0x91, 0xa5, 0xd7,
  0xd6, 0x01, 0xc0, 0xdb, 0xaa, 0xb4, 0xc9, 0xca, 0xe8, 0x20, 0xd8, 0xf5,
  0xad, 0xb3, 0xc3, 0xaf, 0xe1, 0x16, 0xd7, 0xd6, 0xb7, 0x95, 0xab, 0xcc,
  0xed, 0x0c, 0xce, 0xdc, 0xbe, 0x94, 0xb1, 0xc3, 0xec, 0x1c, 0xd7, 0xec,
  0x95, 0x93, 0xbc, 0xbf, 0xef, 0x1c, 0xc3, 0xe1, 0x98, 0xa7, 0xc0, 0xd2,
  0xcf, 0x29, 0xca, 0xcc, 0xc5, 0xae, 0xa0, 0xbf, 0xe3, 0x1f, 0xde, 0xe7,
  0xa9, 0xa3, 0xc4, 0xe3, 0xd2, 0xf7, 0xde, 0xd6, 0x97, 0x9a, 0xa4, 0xb5,
  0xe1, 0xfe, 0xe5, 0xdd, 0xc2, 0xbd, 0xc1, 0xae, 0xc4, 0x03, 0xc9, 0xf3,
  0x92, 0xaf, 0xcb, 0xbf, 0xca, 0x0e, 0xdd, 0xc1, 0xae, 0xa3, 0x93, 0xbc,
  0xd8, 0x05, 0xcb, 0xd3, 0xad, 0x93, 0xb5, 0xd7, 0xc9, 0xfe, 0xe8, 0xc8,
  0xa3, 0x9f, 0xa1, 0xb7, 0xf2, 0x21, 0xc7, 0xc5, 0x98, 0x8e, 0xaa, 0xbb,
  0xd4, 0x1e, 0xf7, 0xe0, 0x95, 0x91, 0xbf, 0xc2, 0xd2, 0x18, 0xce, 0xd0,
  0x88, 0x92, 0xa2, 0xc2, 0xc5, 0x17, 0xc4, 0xff, 0xb2, 0x96, 0xae, 0xd5,
  0xde, 0xf6, 0xf4, 0x0a, 0xba, 0xaa, 0xaf, 0xc9, 0xcf, 0x0d, 0xf0, 0x0f,
  0x9b, 0x97, 0xc4, 0xdf, 0xcc, 0x1b, 0xe2, 0x1c, 0xc1, 0xc0, 0xd2, 0xe2,
  0xe8, 0x15, 0x0d, 0x20, 0xd7, 0xd0, 0xdb, 0xe8, 0x06, 0x26, 0x0d, 0x1a,
  0xb9, 0xd0, 0xec, 0xd3, 0xfc, 0xf7, 0xf1, 0x45, 0xc9, 0xb4, 0x03, 0x04,
  0xeb, 0xfb, 0xeb, 0x43, 0x00, 0xe8, 0xf8, 0xef, 0x09, 0xf9, 0xfa, 0x2c,
  0x12, 0xd6, 0xea, 0x17, 0x0c, 0x0c, 0xe4, 0x31, 0xff, 0xc6, 0x1b, 0xee,
  0x19, 0xfb, 0x07, 0x54, 0x11, 0xf0, 0x20, 0xfe, 0x1c, 0x14, 0x04, 0x41,
  0xf0, 0xf3, 0x10, 0x26, 0x1f, 0x11, 0x03, 0x27, 0x08, 0x24, 0x2d, 0x01,
  0x09, 0x0b, 0x2f, 0x28, 0x0a, 0x12, 0x25, 0x34, 0x12, 0x15, 0x30, 0x2a,
  0x1a, 0x29, 0x11, 0x05, 0xf8, 0xfc, 0xf2, 0x7f, 0xe9, 0x0b, 0xee, 0xf0,
  0xf7, 0x0e, 0x12, 0xea, 0x08, 0xfa, 0x24, 0xf1, 0x05, 0xec, 0x0d, 0x07,
  0xf7, 0xfd, 0x0d, 0xfa, 0x0e, 0xfb, 0x1e, 0x28, 0xee, 0x22, 0x01, 0x00,
  0x24, 0x0b, 0x1a, 0x11, 0x22, 0x1f, 0x00, 0x04, 0x1e, 0x0b, 0x27, 0x32,
  0x05, 0x19, 0x12, 0xfb, 0x1a, 0x0a, 0x16, 0x35, 0x21, 0x1d, 0x0d, 0x03,
  0x28, 0x0b, 0x37, 0x25, 0x1b, 0x33, 0x1c, 0xf1, 0x17, 0xf3, 0x2a, 0x0c,
  0x19, 0x26, 0x29, 0xf5, 0x22, 0xff, 0x2f, 0x15, 0x2d, 0x3a, 0x29, 0x11,
  0x20, 0xfc, 0x2e, 0x36, 0x16, 0x41, 0x29, 0xf1, 0x16, 0x0d, 0x2d, 0x18,
  0x22, 0x3a, 0x10, 0x11, 0x2c, 0x0f, 0x1b, 0x32, 0x2a, 0x39, 0x2e, 0x1d,
  0x1e, 0x0a, 0x1a, 0x24, 0x35, 0x47, 0x3b, 0x06, 0x30, 0x0c, 0x39, 0x1f,
  0x2d, 0x47, 0x29, 0x03, 0x1a, 0xff, 0x17, 0x2b, 0x30, 0x37, 0x1f, 0x12,
  0x27, 0xee, 0x18, 0x36, 0x2a, 0x49, 0x19, 0x07, 0x1d, 0xf7, 0x15, 0x29,
  0x38, 0x2b, 0x1b, 0x12, 0x2f, 0xf7, 0x2f, 0x1b, 0x21, 0x4b, 0x30, 0x05,
  0x24, 0xe8, 0x32, 0x2a, 0x17, 0x2e, 0x24, 0x0a, 0x1d, 0xea, 0x10, 0x33,
  0x15, 0x1e, 0x2f, 0x16, 0x09, 0xf8, 0x2c, 0x36, 0x1d, 0x3f, 0x2c, 0x00,
  0x17, 0xfc, 0x25, 0x33, 0x17, 0x44, 0x24, 0x22, 0x25, 0x0e, 0x34, 0x16,
  0x12, 0x48, 0x41, 0x20, 0x2f, 0x0e, 0x26, 0x23, 0x1b, 0x3e, 0x25, 0x1b,
  0x1b, 0x0e, 0x13, 0x29, 0x2d, 0x22, 0x34, 0x13, 0x09, 0x06, 0x08, 0x18,
  0x3e, 0x2f, 0x42, 0x19, 0x10, 0x13, 0x0f, 0x36, 0x30, 0x30, 0x1f, 0x25,
  0x26, 0xfe, 0x25, 0x2a, 0x1b, 0x38, 0x36, 0x1d, 0x0d, 0xe5, 0x32, 0x1b,
  0x3e, 0x44, 0x25, 0xfd, 0x26, 0x0d, 0x33, 0x28, 0x2b, 0x39, 0x2b, 0x1d,
  0x0d, 0x10, 0x33, 0x36, 0x2f, 0x24, 0x2d, 0x27, 0x15, 0xff, 0x0c, 0x2d,
  0x42, 0x38, 0x1f, 0x1f, 0x07, 0x02, 0x33, 0x21, 0x2d, 0x3e, 0x29, 0xfc,
  0x13, 0xf2, 0x27, 0x16, 0x1a, 0x31, 0x22, 0x23, 0x23, 0xfd, 0x16, 0x1f,
  0x22, 0x28, 0x36, 0x15, 0x07, 0x0f, 0x1d, 0x15, 0x2d, 0x2e, 0x3b, 0x00,
  0x08, 0xe9, 0x0b, 0x19, 0x26, 0x26, 0x1f, 0xf9, 0x0d, 0xe9, 0x17, 0x0c,
  0x29, 0x48, 0x1d, 0x16, 0x23, 0x00, 0xfc, 0xdf, 0x26, 0x31, 0x2a, 0x1a,
  0x20, 0x00, 0x13, 0xd9, 0x1d, 0x2d, 0xf6, 0x02, 0xf6, 0xee, 0x18, 0xe2,
  0x1c, 0x0d, 0x01, 0x0c, 0xff, 0x03, 0x23, 0xe0, 0x01, 0x21, 0xfb, 0xf1,
  0xf0, 0xef, 0x08, 0xdb, 0x05, 0x13, 0x0a, 0x0e, 0xee, 0xef, 0x01, 0xed,
  0xed, 0x0e, 0x07, 0xeb, 0x07, 0xed, 0x1e, 0xdb, 0xf8, 0x0a, 0xfa, 0x11,
  0xf0, 0x14, 0x00, 0xc5, 0xe9, 0xfb, 0xee, 0xf0, 0x00, 0xf6, 0x1b, 0xd3,
  0xf5, 0x14, 0x08, 0x0a, 0x0e, 0x0e, 0x0a, 0xbf, 0x05, 0xf9, 0x10, 0xf3,
  0xe9, 0x03, 0x12, 0xc7, 0x02, 0x0d, 0xed, 0x0e, 0xe9, 0xf7, 0xef, 0x04,
  0xe8, 0xe6, 0xe8, 0xf3, 0xe7, 0xfd, 0xdd, 0xfb, 0x0b, 0xed, 0xfb, 0x13,
  0xf0, 0x08, 0xf8, 0x81, 0x1c, 0xfe, 0x07, 0xf7, 0xfc, 0x1a, 0x16, 0x05,
  0xef, 0xf8, 0xea, 0x27, 0xe7, 0xfd, 0xd4, 0xd1, 0xdf, 0xf1, 0x0a, 0x1b,
  0xc1, 0x12, 0xf7, 0xf0, 0xef, 0xdb, 0x0f, 0x13, 0xfd, 0x1f, 0xb6, 0xc7,
  0xfb, 0xeb, 0xf4, 0x1f, 0xf3, 0x1d, 0xc2, 0xb5, 0xe9, 0xc4, 0xf8, 0xff,
  0xf3, 0x29, 0xce, 0xea, 0xc1, 0xd2, 0xcc, 0x0e, 0xd9, 0x03, 0xe6, 0xb2,
  0xd5, 0x9f, 0xd9, 0x05, 0xee, 0x1a, 0xe7, 0xb9, 0xe9, 0xd6, 0xc7, 0x05,
  0xca, 0xf2, 0xb6, 0xdd, 0xe8, 0xd1, 0xd4, 0x10, 0xf0, 0x27, 0xd3, 0xd1,
  0xb1, 0xa9, 0xbc, 0x00, 0xcb, 0x09, 0xf4, 0xe7, 0xed, 0xa3, 0xdf, 0xe3,
  0xdb, 0x03, 0xdc, 0xeb, 0xb2, 0x95, 0xc6, 0x0d, 0xc6, 0xf0, 0xcd, 0xdd,
  0xc3, 0x9b, 0xd4, 0xcc, 0xce, 0x12, 0xee, 0xd6, 0xc6, 0xca, 0xd1, 0xe5,
  0xbf, 0x20, 0xe4, 0xe5, 0xba, 0xb9, 0xe4, 0x02, 0xba, 0x2d, 0xbb, 0xb4,
  0xb8, 0xa6, 0xc8, 0xd6, 0xb7, 0x1b, 0xbe, 0xd3, 0xd6, 0xaf, 0xba, 0xf7,
  0xfa, 0x2a, 0xd8, 0xe3, 0xcb, 0xcf, 0xe4, 0xdc, 0xba, 0x1d, 0xbd, 0xf1,
  0xc6, 0xbe, 0xab, 0x08, 0xdb, 0xfe, 0x00, 0xbb, 0xe9, 0xa8, 0xb6, 0x0a,
  0xe4, 0xfc, 0xe5, 0xc6, 0xc2, 0xdb, 0xe3, 0x07, 0xea, 0x2b, 0xea, 0xc8,
  0xa9, 0xa1, 0xd1, 0xff, 0xca, 0x12, 0xc0, 0xd8, 0xb5, 0xbf, 0xbd, 0xef,
  0xf5, 0x1a, 0xc4, 0xc7, 0xbe, 0xcb, 0xd4, 0xd0, 0x07, 0xfe, 0xea, 0xc4,
  0xa5, 0xbf, 0xd6, 0x09, 0x02, 0x20, 0xe1, 0xf3, 0xad, 0x9c, 0xc3, 0x0a,
  0xcd, 0xfb, 0xd6, 0xd4, 0xb8, 0xb4, 0xcd, 0x0f, 0xe1, 0x23, 0xbe, 0xfc,
  0xd4, 0x98, 0xdd, 0x02, 0xc1, 0x03, 0xf0, 0xc0, 0xba, 0xd4, 0xda, 0xdd,
  0xf7, 0x0b, 0xd6, 0xb5, 0xaa, 0x94, 0xc9, 0xf5, 0xd9, 0x03, 0xd0, 0xe5,
  0xd8, 0xa9, 0xba, 0xd5, 0xfe, 0xf1, 0xe6, 0xf4, 0xc2, 0xbe, 0xa3, 0x06,
  0xe7, 0x1b, 0xe1, 0xc0, 0xa8, 0xc7, 0xbf, 0x09, 0xce, 0x00, 0xee, 0xc7,
  0x90, 0xc1, 0x94, 0xfc, 0xe2, 0xf9, 0xff, 0xcc, 0xb2, 0xbb, 0xd7, 0x04,
  0xd8, 0xec, 0xe1, 0xe9, 0xdd, 0x86, 0xd1, 0xd7, 0xc4, 0x22, 0xc4, 0x1e,
  0xc8, 0x91, 0xb7, 0xfd, 0xcd, 0x1c, 0x00, 0xe4, 0xb4, 0xba, 0xd9, 0xfa,
  0xd9, 0xee, 0x15, 0x29, 0xcb, 0x89, 0xec, 0xf6, 0xe2, 0x1a, 0xf6, 0xfb,
  0xe7, 0xbc, 0xcb, 0x1a, 0x11, 0x2e, 0xf8, 0x2a, 0xf0, 0xf0, 0x14, 0xff,
  0xe3, 0xfa, 0xd6, 0x33, 0xd7, 0xf7, 0xed, 0xe8, 0x0e, 0xf5, 0xda, 0x26,
  0x0d, 0xdf, 0xe1, 0x03, 0x1d, 0xf5, 0xef, 0x27, 0xf1, 0xce, 0x02, 0xe1,
  0x0c, 0xfd, 0xe9, 0x3c, 0x00, 0xd6, 0x1e, 0x22, 0xf4, 0x2d, 0xf4, 0x5f,
  0x2b, 0xf3, 0x16, 0xe7, 0x12, 0xfd, 0xea, 0x28, 0xea, 0xf0, 0xff, 0x23,
  0x08, 0xfe, 0x25, 0x5b, 0xf0, 0xef, 0x01, 0x15, 0xf0, 0xf0, 0x0f, 0x33,
  0x2b, 0xfe, 0xfb, 0x13, 0x2d, 0x14, 0x05, 0x09, 0xfd, 0x24, 0x1f, 0xfb,
  0x0e, 0x2a, 0x1b, 0x13, 0xea, 0x23, 0x13, 0x03, 0xef, 0x11, 0x0c, 0x91,
  0xde, 0x1c, 0x2b, 0x2c, 0x1b, 0x13, 0xe8, 0xeb, 0x12, 0x1d, 0xec, 0xfa,
  0xfa, 0xef, 0x06, 0x05, 0xf8, 0xd8, 0xed, 0xfe, 0xfa, 0x13, 0xe6, 0xce,
  0xed, 0xe0, 0xff, 0xef, 0xcb, 0x13, 0xd1, 0xc6, 0xdb, 0xc4, 0x05, 0xeb,
  0xfb, 0xf7, 0xc8, 0xbf, 0x01, 0xde, 0x07, 0xf4, 0xf7, 0x0a, 0xe6, 0xc7,
  0xba, 0xa6, 0x0e, 0x02, 0xea, 0x13, 0xc4, 0xca, 0xde, 0xde, 0xcb, 0x17,
  0xb7, 0xfe, 0xe0, 0xfa, 0xbe, 0xae, 0xff, 0xea, 0xfc, 0xfc, 0xdf, 0xcc,
  0xf4, 0xba, 0xc8, 0xf5, 0xc0, 0x1b, 0xb5, 0xd5, 0xd0, 0x9a, 0xc4, 0xe0,
  0xf0, 0x27, 0xbb, 0xac, 0xc4, 0xa3, 0xe6, 0x16, 0xbe, 0x0e, 0xef, 0xea,
  0xda, 0xb2, 0xaf, 0xe0, 0xf5, 0xf2, 0xed, 0xae, 0xeb, 0xcf, 0xc8, 0xe1,
  0xe0, 0x29, 0xc1, 0xc5, 0xb1, 0x9d, 0xd9, 0x0c, 0xd4, 0xf5, 0xb5, 0xb9,
  0xb7, 0xd0, 0xb6, 0xd1, 0xee, 0xe6, 0xf0, 0xd4, 0xd0, 0xbd, 0xb3, 0xda,
  0xb9, 0x27, 0xe7, 0xfb, 0xe0, 0xd2, 0xc9, 0xd6, 0xe9, 0x0f, 0xcb, 0x03,
  0xaa, 0xd9, 0xca, 0xe5, 0xed, 0x01, 0xc1, 0xec, 0xba, 0xa6, 0xda, 0xec,
  0xd8, 0x20, 0xc4, 0xf7, 0xcd, 0xdf, 0xae, 0xcb, 0xf8, 0xf4, 0xca, 0xff,
  0xdc, 0xbb, 0xb0, 0xf3, 0xc6, 0x08, 0xb4, 0xcd, 0xd7, 0xaf, 0xae, 0x15,
  0x04, 0x2a, 0xc1, 0xea, 0xef, 0xc1, 0xad, 0xe2, 0xba, 0xfa, 0xea, 0xfc,
  0xb4, 0xb4, 0xad, 0xe8, 0xf6, 0x28, 0xc0, 0xd9, 0xa7, 0xe4, 0xb5, 0xe7,
  0xdd, 0xf4, 0xf4, 0xff, 0xa6, 0xd8, 0xaf, 0xec, 0xed, 0x21, 0xcd, 0xfd,
  0xe2, 0xa9, 0xdd, 0xf1, 0xf1, 0xea, 0xbc, 0xd9, 0xb6, 0xc2, 0xd0, 0xd8,
  0xcd, 0xef, 0xd4, 0xf2, 0xed, 0xc1, 0xb6, 0xd8, 0xe0, 0x10, 0xed, 0xbd,
  0xa7, 0xd8, 0xa6, 0xc8, 0xe1, 0x26, 0xf8, 0xde, 0xa0, 0xb3, 0xa0, 0xf0,
  0xc7, 0xfa, 0xd5, 0x01, 0xe4, 0xa2, 0xd9, 0xe6, 0xd2, 0x10, 0xee, 0xe3,
  0xbf, 0xbe, 0xad, 0xf6, 0xdb, 0xf2, 0xe4, 0xe2, 0xc7, 0x90, 0xc1, 0xf2,
  0xca, 0xec, 0xeb, 0xeb, 0xc1, 0x9b, 0xc5, 0xde, 0xe0, 0x1e, 0xe8, 0xd3,
  0xd2, 0x81, 0x9c, 0xf3, 0xd8, 0xfa, 0xf1, 0x09, 0x91, 0xc2, 0xe7, 0x08,
  0xff, 0xf7, 0xfd, 0x1e, 0xc4, 0x95, 0xa4, 0xe4, 0xee, 0x2c, 0x0f, 0x0d,
  0xac, 0x98, 0xe3, 0xe3, 0xeb, 0x21, 0xfd, 0xfa, 0xd6, 0xcd, 0xf1, 0xe2,
  0xdc, 0x2a, 0xdf, 0x00, 0xeb, 0xe1, 0xd6, 0xf6, 0x03, 0xf7, 0xd7, 0x27,
  0xfa, 0xc9, 0x02, 0x13, 0xe6, 0x19, 0xd4, 0x17, 0x0c, 0xd5, 0x20, 0xfa,
  0xf1, 0x28, 0x02, 0x46, 0x0c, 0xe8, 0xe9, 0x2b, 0xf6, 0x1c, 0xfe, 0x4c,
  0xe1, 0xf4, 0xf9, 0xe1, 0x00, 0x14, 0x1c, 0x3b, 0x0c, 0x07, 0x27, 0x08,
  0xf5, 0xff, 0x1a, 0x4a, 0xef, 0xe2, 0xef, 0xf4, 0x0e, 0x19, 0xee, 0x59,
  0x2b, 0x15, 0xfe, 0x1f, 0xeb, 0x17, 0x25, 0x21, 0xe9, 0x0e, 0x27, 0x15,
  0x1e, 0x2c, 0xff, 0xfe, 0x1c, 0x26, 0xea, 0x29, 0x0f, 0xe6, 0x2e, 0x03,
  0x16, 0xf7, 0xf9, 0x2b, 0xda, 0xfe, 0xff, 0xff, 0x04, 0x00, 0x00, 0x00,
  0x20, 0x00, 0x00, 0x00, 0xf9, 0x06, 0x00, 0x00, 0xf2, 0xf5, 0xff, 0xff,
  0xd2, 0xfd, 0xff, 0xff, 0x4d, 0xfd, 0xff, 0xff, 0xa3, 0x0f, 0x00, 0x00,
  0x49, 0xfd, 0xff, 0xff, 0xf2, 0x0d, 0x00, 0x00, 0x21, 0x09, 0x00, 0x00,
  0x06, 0xff, 0xff, 0xff, 0x04, 0x00, 0x00, 0x00, 0x10, 0x00, 0x00, 0x00,
  0x89, 0xb5, 0x0b, 0x12, 0xca, 0x13, 0x85, 0x81, 0x3a, 0xc4, 0x9b, 0x9d,
  0x39, 0x81, 0x19, 0x74, 0x22, 0xff, 0xff, 0xff, 0x04, 0x00, 0x00, 0x00,
  0x08, 0x00, 0x00, 0x00, 0xc3, 0x01, 0x00, 0x00, 0x4e, 0xfe, 0xff, 0xff,
  0x36, 0xff, 0xff, 0xff, 0x04, 0x00, 0x00, 0x00, 0x08, 0x00, 0x00, 0x00,
  0xff, 0xff, 0xff, 0xff, 0xa0, 0x01, 0x00, 0x00, 0x70, 0xf4, 0xff, 0xff,
  0x74, 0xf4, 0xff, 0xff, 0x0f, 0x00, 0x00, 0x00, 0x4d, 0x4c, 0x49, 0x52,
  0x20, 0x43, 0x6f, 0x6e, 0x76, 0x65, 0x72, 0x74, 0x65, 0x64, 0x2e, 0x00,
  0x01, 0x00, 0x00, 0x00, 0x14, 0x00, 0x00, 0x00, 0x00, 0x00, 0x0e, 0x00,
  0x18, 0x00, 0x14, 0x00, 0x10, 0x00, 0x0c, 0x00, 0x08, 0x00, 0x04, 0x00,
  0x0e, 0x00, 0x00, 0x00, 0x14, 0x00, 0x00, 0x00, 0x1c, 0x00, 0x00, 0x00,
  0x0c, 0x02, 0x00, 0x00, 0x10, 0x02, 0x00, 0x00, 0x14, 0x02, 0x00, 0x00,
  0x04, 0x00, 0x00, 0x00, 0x6d, 0x61, 0x69, 0x6e, 0x00, 0x00, 0x00, 0x00,
  0x08, 0x00, 0x00, 0x00, 0xd4, 0x01, 0x00, 0x00, 0x78, 0x01, 0x00, 0x00,
  0x14, 0x01, 0x00, 0x00, 0xec, 0x00, 0x00, 0x00, 0x9c, 0x00, 0x00, 0x00,
  0x64, 0x00, 0x00, 0x00, 0x28, 0x00, 0x00, 0x00, 0x04, 0x00, 0x00, 0x00,
  0x32, 0xff, 0xff, 0xff, 0x0c, 0x00, 0x00, 0x00, 0x10, 0x00, 0x00, 0x00,
  0x06, 0x00, 0x00, 0x00, 0x01, 0x00, 0x00, 0x00, 0x0f, 0x00, 0x00, 0x00,
  0x01, 0x00, 0x00, 0x00, 0x0e, 0x00, 0x00, 0x00, 0xd2, 0xfe, 0xff, 0xff,
  0x1c, 0x00, 0x00, 0x00, 0x00, 0x00, 0x00, 0x09, 0x1c, 0x00, 0x00, 0x00,
  0x20, 0x00, 0x00, 0x00, 0x05, 0x00, 0x00, 0x00, 0x00, 0x00, 0x06, 0x00,
  0x08, 0x00, 0x04, 0x00, 0x06, 0x00, 0x00, 0x00, 0x00, 0x00, 0x80, 0x3f,
  0x01, 0x00, 0x00, 0x00, 0x0e, 0x00, 0x00, 0x00, 0x01, 0x00, 0x00, 0x00,
  0x0d, 0x00, 0x00, 0x00, 0x0a, 0xff, 0xff, 0xff, 0x14, 0x00, 0x00, 0x00,
  0x00, 0x00, 0x00, 0x08, 0x10, 0x00, 0x00, 0x00, 0x14, 0x00, 0x00, 0x00,
  0x04, 0x00, 0x00, 0x00, 0x5c, 0xf5, 0xff, 0xff, 0x01, 0x00, 0x00, 0x00,
  0x0d, 0x00, 0x00, 0x00, 0x03, 0x00, 0x00, 0x00, 0x0c, 0x00, 0x00, 0x00,
  0x03, 0x00, 0x00, 0x00, 0x02, 0x00, 0x00, 0x00, 0x3e, 0xff, 0xff, 0xff,
  0x1c, 0x00, 0x00, 0x00, 0x00, 0x00, 0x00, 0x08, 0x1c, 0x00, 0x00, 0x00,
  0x20, 0x00, 0x00, 0x00, 0x04, 0x00, 0x00, 0x00, 0x00, 0x00, 0x06, 0x00,
  0x08, 0x00, 0x07, 0x00, 0x06, 0x00, 0x00, 0x00, 0x00, 0x00, 0x00, 0x01,
  0x01, 0x00, 0x00, 0x00, 0x0c, 0x00, 0x00, 0x00, 0x03, 0x00, 0x00, 0x00,
  0x0b, 0x00, 0x00, 0x00, 0x05, 0x00, 0x00, 0x00, 0x04, 0x00, 0x00, 0x00,
  0x00, 0x00, 0x0a, 0x00, 0x10, 0x00, 0x0c, 0x00, 0x08, 0x00, 0x04, 0x00,
  0x0a, 0x00, 0x00, 0x00, 0x0c, 0x00, 0x00, 0x00, 0x10, 0x00, 0x00, 0x00,
  0x03, 0x00, 0x00, 0x00, 0x01, 0x00, 0x00, 0x00, 0x0b, 0x00, 0x00, 0x00,
  0x02, 0x00, 0x00, 0x00, 0x0a, 0x00, 0x00, 0x00, 0x01, 0x00, 0x00, 0x00,
  0xae, 0xff, 0xff, 0xff, 0x24, 0x00, 0x00, 0x00, 0x00, 0x00, 0x00, 0x05,
  0x34, 0x00, 0x00, 0x00, 0x38, 0x00, 0x00, 0x00, 0x02, 0x00, 0x00, 0x00,
  0x00, 0x00, 0x0e, 0x00, 0x18, 0x00, 0x17, 0x00, 0x10, 0x00, 0x0c, 0x00,
  0x08, 0x00, 0x04, 0x00, 0x0e, 0x00, 0x00, 0x00, 0x02, 0x00, 0x00, 0x00,
  0x06, 0x00, 0x00, 0x00, 0x02, 0x00, 0x00, 0x00, 0x06, 0x00, 0x00, 0x00,
  0x00, 0x00, 0x00, 0x01, 0x01, 0x00, 0x00, 0x00, 0x0a, 0x00, 0x00, 0x00,
  0x01, 0x00, 0x00, 0x00, 0x09, 0x00, 0x00, 0x00, 0x00, 0x00, 0x0e, 0x00,
  0x18, 0x00, 0x14, 0x00, 0x10, 0x00, 0x0c, 0x00, 0x0b, 0x00, 0x04, 0x00,
  0x0e, 0x00, 0x00, 0x00, 0x20, 0x00, 0x00, 0x00, 0x00, 0x00, 0x00, 0x01,
  0x28, 0x00, 0x00, 0x00, 0x2c, 0x00, 0x00, 0x00, 0x01, 0x00, 0x00, 0x00,
  0x0c, 0x00, 0x10, 0x00, 0x00, 0x00, 0x0c, 0x00, 0x08, 0x00, 0x07, 0x00,
  0x0c, 0x00, 0x00, 0x00, 0x00, 0x00, 0x00, 0x01, 0x01, 0x00, 0x00, 0x00,
  0x01, 0x00, 0x00, 0x00, 0x01, 0x00, 0x00, 0x00, 0x09, 0x00, 0x00, 0x00,
  0x03, 0x00, 0x00, 0x00, 0x08, 0x00, 0x00, 0x00, 0x07, 0x00, 0x00, 0x00,
  0x06, 0x00, 0x00, 0x00, 0x00, 0x00, 0x0a, 0x00, 0x0c, 0x00, 0x00, 0x00,
  0x08, 0x00, 0x04, 0x00, 0x0a, 0x00, 0x00, 0x00, 0x08, 0x00, 0x00, 0x00,
  0x0c, 0x00, 0x00, 0x00, 0x01, 0x00, 0x00, 0x00, 0x08, 0x00, 0x00, 0x00,
  0x01, 0x00, 0x00, 0x00, 0x00, 0x00, 0x00, 0x00, 0x01, 0x00, 0x00, 0x00,
  0x0f, 0x00, 0x00, 0x00, 0x01, 0x00, 0x00, 0x00, 0x00, 0x00, 0x00, 0x00,
  0x10, 0x00, 0x00, 0x00, 0x00, 0x09, 0x00, 0x00, 0xa8, 0x08, 0x00, 0x00,
  0x14, 0x08, 0x00, 0x00, 0xa4, 0x07, 0x00, 0x00, 0xf0, 0x06, 0x00, 0x00,
  0x34, 0x06, 0x00, 0x00, 0x80, 0x05, 0x00, 0x00, 0xbc, 0x04, 0x00, 0x00,
  0x38, 0x04, 0x00, 0x00, 0x54, 0x03, 0x00, 0x00, 0xb8, 0x02, 0x00, 0x00,
  0x34, 0x02, 0x00, 0x00, 0x80, 0x01, 0x00, 0x00, 0xe4, 0x00, 0x00, 0x00,
  0x60, 0x00, 0x00, 0x00, 0x04, 0x00, 0x00, 0x00, 0x56, 0xf7, 0xff, 0xff,
  0x00, 0x00, 0x00, 0x01, 0x14, 0x00, 0x00, 0x00, 0x1c, 0x00, 0x00, 0x00,
  0x1c, 0x00, 0x00, 0x00, 0x10, 0x00, 0x00, 0x00, 0x34, 0x00, 0x00, 0x00,
  0x02, 0x00, 0x00, 0x00, 0xff, 0xff, 0xff, 0xff, 0x02, 0x00, 0x00, 0x00,
  0x38, 0xf7, 0xff, 0xff, 0x1b, 0x00, 0x00, 0x00, 0x53, 0x74, 0x61, 0x74,
  0x65, 0x66, 0x75, 0x6c, 0x50, 0x61, 0x72, 0x74, 0x69, 0x74, 0x69, 0x6f,
  0x6e, 0x65, 0x64, 0x43, 0x61, 0x6c, 0x6c, 0x5f, 0x31, 0x3a, 0x30, 0x00,
  0x02, 0x00, 0x00, 0x00, 0x01, 0x00, 0x00, 0x00, 0x02, 0x00, 0x00, 0x00,
  0x56, 0xfc, 0xff, 0xff, 0x00, 0x00, 0x00, 0x01, 0x18, 0x00, 0x00, 0x00,
  0x20, 0x00, 0x00, 0x00, 0x40, 0x00, 0x00, 0x00, 0x0f, 0x00, 0x00, 0x00,
  0x00, 0x00, 0x00, 0x09, 0x58, 0x00, 0x00, 0x00, 0x02, 0x00, 0x00, 0x00,
  0xff, 0xff, 0xff, 0xff, 0x02, 0x00, 0x00, 0x00, 0x8c, 0xf8, 0xff, 0xff,
  0x08, 0x00, 0x00, 0x00, 0x14, 0x00, 0x00, 0x00, 0x01, 0x00, 0x00, 0x00,
  0x80, 0xff, 0xff, 0xff, 0xff, 0xff, 0xff, 0xff, 0x00, 0x00, 0x00, 0x00,
  0x01, 0x00, 0x00, 0x00, 0x00, 0x00, 0x80, 0x3b, 0x1c, 0x00, 0x00, 0x00,
  0x53, 0x74, 0x61, 0x74, 0x65, 0x66, 0x75, 0x6c, 0x50, 0x61, 0x72, 0x74,
  0x69, 0x74, 0x69, 0x6f, 0x6e, 0x65, 0x64, 0x43, 0x61, 0x6c, 0x6c, 0x5f,
  0x31, 0x3a, 0x30, 0x31, 0x00, 0x00, 0x00, 0x00, 0x02, 0x00, 0x00, 0x00,
  0x01, 0x00, 0x00, 0x00, 0x02, 0x00, 0x00, 0x00, 0xd6, 0xfc, 0xff, 0xff,
  0x00, 0x00, 0x00, 0x01, 0x18, 0x00, 0x00, 0x00, 0x20, 0x00, 0x00, 0x00,
  0x3c, 0x00, 0x00, 0x00, 0x0e, 0x00, 0x00, 0x00, 0x00, 0x00, 0x00, 0x09,
  0x70, 0x00, 0x00, 0x00, 0x02, 0x00, 0x00, 0x00, 0xff, 0xff, 0xff, 0xff,
  0x02, 0x00, 0x00, 0x00, 0x0c, 0xf9, 0xff, 0xff, 0x08, 0x00, 0x00, 0x00,
  0x10, 0x00, 0x00, 0x00, 0x01, 0x00, 0x00, 0x00, 0x36, 0x00, 0x00, 0x00,
  0x00, 0x00, 0x00, 0x00, 0x01, 0x00, 0x00, 0x00, 0xa8, 0x61, 0x4e, 0x3d,
  0x38, 0x00, 0x00, 0x00, 0x73, 0x65, 0x71, 0x75, 0x65, 0x6e, 0x74, 0x69,
  0x61, 0x6c, 0x5f, 0x31, 0x2f, 0x64, 0x65, 0x6e, 0x73, 0x65, 0x5f, 0x31,
  0x5f, 0x32, 0x2f, 0x4d, 0x61, 0x74, 0x4d, 0x75, 0x6c, 0x3b, 0x73, 0x65,
  0x71, 0x75, 0x65, 0x6e, 0x74, 0x69, 0x61, 0x6c, 0x5f, 0x31, 0x2f, 0x64,
  0x65, 0x6e, 0x73, 0x65, 0x5f, 0x31, 0x5f, 0x32, 0x2f, 0x41, 0x64, 0x64,
  0x00, 0x00, 0x00, 0x00, 0x02, 0x00, 0x00, 0x00, 0x01, 0x00, 0x00, 0x00,
  0x02, 0x00, 0x00, 0x00, 0x6e, 0xfd, 0xff, 0xff, 0x00, 0x00, 0x00, 0x01,
  0x18, 0x00, 0x00, 0x00, 0x20, 0x00, 0x00, 0x00, 0x40, 0x00, 0x00, 0x00,
  0x0d, 0x00, 0x00, 0x00, 0x00, 0x00, 0x00, 0x09, 0x88, 0x00, 0x00, 0x00,
  0x02, 0x00, 0x00, 0x00, 0xff, 0xff, 0xff, 0xff, 0x08, 0x00, 0x00, 0x00,
  0xa4, 0xf9, 0xff, 0xff, 0x08, 0x00, 0x00, 0x00, 0x14, 0x00, 0x00, 0x00,
  0x01, 0x00, 0x00, 0x00, 0x80, 0xff, 0xff, 0xff, 0xff, 0xff, 0xff, 0xff,
  0x00, 0x00, 0x00, 0x00, 0x01, 0x00, 0x00, 0x00, 0x2b, 0xe6, 0x60, 0x3c,
  0x4e, 0x00, 0x00, 0x00, 0x73, 0x65, 0x71, 0x75, 0x65, 0x6e, 0x74, 0x69,
  0x61, 0x6c, 0x5f, 0x31, 0x2f, 0x64, 0x65, 0x6e, 0x73, 0x65, 0x5f, 0x31,
  0x2f, 0x4d, 0x61, 0x74, 0x4d, 0x75, 0x6c, 0x3b, 0x73, 0x65, 0x71, 0x75,
  0x65, 0x6e, 0x74, 0x69, 0x61, 0x6c, 0x5f, 0x31, 0x2f, 0x64, 0x65, 0x6e,
  0x73, 0x65, 0x5f, 0x31, 0x2f, 0x52, 0x65, 0x6c, 0x75, 0x3b, 0x73, 0x65,
  0x71, 0x75, 0x65, 0x6e, 0x74, 0x69, 0x61, 0x6c, 0x5f, 0x31, 0x2f, 0x64,
  0x65, 0x6e, 0x73, 0x65, 0x5f, 0x31, 0x2f, 0x41, 0x64, 0x64, 0x00, 0x00,
  0x02, 0x00, 0x00, 0x00, 0x01, 0x00, 0x00, 0x00, 0x08, 0x00, 0x00, 0x00,
  0x1e, 0xfe, 0xff, 0xff, 0x00, 0x00, 0x00, 0x01, 0x18, 0x00, 0x00, 0x00,
  0x20, 0x00, 0x00, 0x00, 0x40, 0x00, 0x00, 0x00, 0x0c, 0x00, 0x00, 0x00,
  0x00, 0x00, 0x00, 0x09, 0x58, 0x00, 0x00, 0x00, 0x02, 0x00, 0x00, 0x00,
  0xff, 0xff, 0xff, 0xff, 0xa0, 0x01, 0x00, 0x00, 0x54, 0xfa, 0xff, 0xff,
  0x08, 0x00, 0x00, 0x00, 0x14, 0x00, 0x00, 0x00, 0x01, 0x00, 0x00, 0x00,
  0x80, 0xff, 0xff, 0xff, 0xff, 0xff, 0xff, 0xff, 0x00, 0x00, 0x00, 0x00,
  0x01, 0x00, 0x00, 0x00, 0xd5, 0xed, 0x76, 0x3b, 0x1e, 0x00, 0x00, 0x00,
  0x73, 0x65, 0x71, 0x75, 0x65, 0x6e, 0x74, 0x69, 0x61, 0x6c, 0x5f, 0x31,
  0x2f, 0x66, 0x6c, 0x61, 0x74, 0x74, 0x65, 0x6e, 0x5f, 0x31, 0x2f, 0x52,
  0x65, 0x73, 0x68, 0x61, 0x70, 0x65, 0x00, 0x00, 0x02, 0x00, 0x00, 0x00,
  0x01, 0x00, 0x00, 0x00, 0xa0, 0x01, 0x00, 0x00, 0x9e, 0xfe, 0xff, 0xff,
  0x00, 0x00, 0x00, 0x01, 0x18, 0x00, 0x00, 0x00, 0x28, 0x00, 0x00, 0x00,
  0x48, 0x00, 0x00, 0x00, 0x0b, 0x00, 0x00, 0x00, 0x00, 0x00, 0x00, 0x09,
  0x68, 0x00, 0x00, 0x00, 0x04, 0x00, 0x00, 0x00, 0xff, 0xff, 0xff, 0xff,
  0x34, 0x00, 0x00, 0x00, 0x01, 0x00, 0x00, 0x00, 0x08, 0x00, 0x00, 0x00,
  0xdc, 0xfa, 0xff, 0xff, 0x08, 0x00, 0x00, 0x00, 0x14, 0x00, 0x00, 0x00,
  0x01, 0x00, 0x00, 0x00, 0x80, 0xff, 0xff, 0xff, 0xff, 0xff, 0xff, 0xff,
  0x00, 0x00, 0x00, 0x00, 0x01, 0x00, 0x00, 0x00, 0xd5, 0xed, 0x76, 0x3b,
  0x26, 0x00, 0x00, 0x00, 0x73, 0x65, 0x71, 0x75, 0x65, 0x6e, 0x74, 0x69,
  0x61, 0x6c, 0x5f, 0x31, 0x2f, 0x6d, 0x61, 0x78, 0x5f, 0x70, 0x6f, 0x6f,
  0x6c, 0x69, 0x6e, 0x67, 0x32, 0x64, 0x5f, 0x31, 0x2f, 0x4d, 0x61, 0x78,
  0x50, 0x6f, 0x6f, 0x6c, 0x32, 0x64, 0x00, 0x00, 0x04, 0x00, 0x00, 0x00,
  0x01, 0x00, 0x00, 0x00, 0x34, 0x00, 0x00, 0x00, 0x01, 0x00, 0x00, 0x00,
  0x08, 0x00, 0x00, 0x00, 0x36, 0xff, 0xff, 0xff, 0x00, 0x00, 0x00, 0x01,
  0x18, 0x00, 0x00, 0x00, 0x28, 0x00, 0x00, 0x00, 0x44, 0x00, 0x00, 0x00,
  0x0a, 0x00, 0x00, 0x00, 0x00, 0x00, 0x00, 0x09, 0x98, 0x00, 0x00, 0x00,
  0x04, 0x00, 0x00, 0x00, 0xff, 0xff, 0xff, 0xff, 0x68, 0x00, 0x00, 0x00,
  0x06, 0x00, 0x00, 0x00, 0x08, 0x00, 0x00, 0x00, 0x74, 0xfb, 0xff, 0xff,
  0x08, 0x00, 0x00, 0x00, 0x10, 0x00, 0x00, 0x00, 0x01, 0x00, 0x00, 0x00,
  0x80, 0xff, 0xff, 0xff, 0xff, 0xff, 0xff, 0xff, 0x01, 0x00, 0x00, 0x00,
  0xd5, 0xed, 0x76, 0x3b, 0x58, 0x00, 0x00, 0x00, 0x73, 0x65, 0x71, 0x75,
  0x65, 0x6e, 0x74, 0x69, 0x61, 0x6c, 0x5f, 0x31, 0x2f, 0x63, 0x6f, 0x6e,
  0x76, 0x32, 0x64, 0x5f, 0x31, 0x2f, 0x52, 0x65, 0x6c, 0x75, 0x3b, 0x73,
  0x65, 0x71, 0x75, 0x65, 0x6e, 0x74, 0x69, 0x61, 0x6c, 0x5f, 0x31, 0x2f,
  0x63, 0x6f, 0x6e, 0x76, 0x32, 0x64, 0x5f, 0x31, 0x2f, 0x61, 0x64, 0x64,
  0x3b, 0x73, 0x65, 0x71, 0x75, 0x65, 0x6e, 0x74, 0x69, 0x61, 0x6c, 0x5f,
  0x31, 0x2f, 0x63, 0x6f, 0x6e, 0x76, 0x32, 0x64, 0x5f, 0x31, 0x2f, 0x63,
  0x6f, 0x6e, 0x76, 0x6f, 0x6c, 0x75, 0x74, 0x69, 0x6f, 0x6e, 0x3b, 0x31,
  0x00, 0x00, 0x00, 0x00, 0x04, 0x00, 0x00, 0x00, 0x01, 0x00, 0x00, 0x00,
  0x68, 0x00, 0x00, 0x00, 0x06, 0x00, 0x00, 0x00, 0x08, 0x00, 0x00, 0x00,
  0x00, 0x00, 0x16, 0x00, 0x20, 0x00, 0x1c, 0x00, 0x1b, 0x00, 0x14, 0x00,
  0x10, 0x00, 0x0c, 0x00, 0x00, 0x00, 0x00, 0x00, 0x08, 0x00, 0x07, 0x00,
  0x16, 0x00, 0x00, 0x00, 0x00, 0x00, 0x00, 0x01, 0x18, 0x00, 0x00, 0x00,
  0x28, 0x00, 0x00, 0x00, 0x48, 0x00, 0x00, 0x00, 0x09, 0x00, 0x00, 0x00,
  0x00, 0x00, 0x00, 0x09, 0x50, 0x00, 0x00, 0x00, 0x04, 0x00, 0x00, 0x00,
  0xff, 0xff, 0xff, 0xff, 0x68, 0x00, 0x00, 0x00, 0x06, 0x00, 0x00, 0x00,
  0x01, 0x00, 0x00, 0x00, 0x54, 0xfc, 0xff, 0xff, 0x08, 0x00, 0x00, 0x00,
  0x14, 0x00, 0x00, 0x00, 0x01, 0x00, 0x00, 0x00, 0x80, 0xff, 0xff, 0xff,
  0xff, 0xff, 0xff, 0xff, 0x00, 0x00, 0x00, 0x00, 0x01, 0x00, 0x00, 0x00,
  0x81, 0x80, 0x80, 0x3b, 0x0c, 0x00, 0x00, 0x00, 0x74, 0x66, 0x6c, 0x2e,
  0x71, 0x75, 0x61, 0x6e, 0x74, 0x69, 0x7a, 0x65, 0x00, 0x00, 0x00, 0x00,
  0x04, 0x00, 0x00, 0x00, 0x01, 0x00, 0x00, 0x00, 0x68, 0x00, 0x00, 0x00,
  0x06, 0x00, 0x00, 0x00, 0x01, 0x00, 0x00, 0x00, 0x42, 0xfc, 0xff, 0xff,
  0x00, 0x00, 0x00, 0x01, 0x14, 0x00, 0x00, 0x00, 0x88, 0x00, 0x00, 0x00,
  0x08, 0x00, 0x00, 0x00, 0x00, 0x00, 0x00, 0x09, 0x94, 0x00, 0x00, 0x00,
  0xbc, 0xfc, 0xff, 0xff, 0x08, 0x00, 0x00, 0x00, 0x4c, 0x00, 0x00, 0x00,
  0x08, 0x00, 0x00, 0x00, 0x00, 0x00, 0x00, 0x00, 0x00, 0x00, 0x00, 0x00,
  0x00, 0x00, 0x00, 0x00, 0x00, 0x00, 0x00, 0x00, 0x00, 0x00, 0x00, 0x00,
  0x00, 0x00, 0x00, 0x00, 0x00, 0x00, 0x00, 0x00, 0x00, 0x00, 0x00, 0x00,
  0x00, 0x00, 0x00, 0x00, 0x00, 0x00, 0x00, 0x00, 0x00, 0x00, 0x00, 0x00,
  0x00, 0x00, 0x00, 0x00, 0x00, 0x00, 0x00, 0x00, 0x00, 0x00, 0x00, 0x00,
  0x00, 0x00, 0x00, 0x00, 0x00, 0x00, 0x00, 0x00, 0x00, 0x00, 0x00, 0x00,
  0x08, 0x00, 0x00, 0x00, 0xf1, 0x2d, 0xc9, 0x3a, 0xd2, 0x65, 0xa0, 0x3a,
  0xd9, 0x9f, 0xce, 0x3a, 0xd2, 0xb1, 0xd0, 0x3a, 0xd8, 0xb3, 0xe7, 0x3a,
  0x5e, 0x2e, 0xe0, 0x3a, 0x8e, 0x5f, 0xcb, 0x3a, 0x45, 0x6d, 0xf1, 0x3a,
  0x12, 0x00, 0x00, 0x00, 0x74, 0x66, 0x6c, 0x2e, 0x70, 0x73, 0x65, 0x75,
  0x64, 0x6f, 0x5f, 0x71, 0x63, 0x6f, 0x6e, 0x73, 0x74, 0x35, 0x00, 0x00,
  0x04, 0x00, 0x00, 0x00, 0x08, 0x00, 0x00, 0x00, 0x0a, 0x00, 0x00, 0x00,
  0x03, 0x00, 0x00, 0x00, 0x01, 0x00, 0x00, 0x00, 0x02, 0xfd, 0xff, 0xff,
  0x00, 0x00, 0x00, 0x01, 0x14, 0x00, 0x00, 0x00, 0x84, 0x00, 0x00, 0x00,
  0x07, 0x00, 0x00, 0x00, 0x00, 0x00, 0x00, 0x02, 0x90, 0x00, 0x00, 0x00,
  0x7c, 0xfd, 0xff, 0xff, 0x08, 0x00, 0x00, 0x00, 0x48, 0x00, 0x00, 0x00,
  0x08, 0x00, 0x00, 0x00, 0x00, 0x00, 0x00, 0x00, 0x00, 0x00, 0x00, 0x00,
  0x00, 0x00, 0x00, 0x00, 0x00, 0x00, 0x00, 0x00, 0x00, 0x00, 0x00, 0x00,
  0x00, 0x00, 0x00, 0x00, 0x00, 0x00, 0x00, 0x00, 0x00, 0x00, 0x00, 0x00,
  0x00, 0x00, 0x00, 0x00, 0x00, 0x00, 0x00, 0x00, 0x00, 0x00, 0x00, 0x00,
  0x00, 0x00, 0x00, 0x00, 0x00, 0x00, 0x00, 0x00, 0x00, 0x00, 0x00, 0x00,
  0x00, 0x00, 0x00, 0x00, 0x00, 0x00, 0x00, 0x00, 0x08, 0x00, 0x00, 0x00,
  0xea, 0xf7, 0xc9, 0x36, 0xd9, 0x06, 0xa1, 0x36, 0x49, 0x6f, 0xcf, 0x36,
  0x56, 0x83, 0xd1, 0x36, 0x75, 0x9c, 0xe8, 0x36, 0x6e, 0x0f, 0xe1, 0x36,
  0xbb, 0x2b, 0xcc, 0x36, 0xa6, 0x5f, 0xf2, 0x36, 0x12, 0x00, 0x00, 0x00,
  0x74, 0x66, 0x6c, 0x2e, 0x70, 0x73, 0x65, 0x75, 0x64, 0x6f, 0x5f, 0x71,
  0x63, 0x6f, 0x6e, 0x73, 0x74, 0x34, 0x00, 0x00, 0x01, 0x00, 0x00, 0x00,
  0x08, 0x00, 0x00, 0x00, 0xb2, 0xfd, 0xff, 0xff, 0x00, 0x00, 0x00, 0x01,
  0x14, 0x00, 0x00, 0x00, 0x88, 0x00, 0x00, 0x00, 0x06, 0x00, 0x00, 0x00,
  0x00, 0x00, 0x00, 0x09, 0x94, 0x00, 0x00, 0x00, 0x2c, 0xfe, 0xff, 0xff,
  0x08, 0x00, 0x00, 0x00, 0x4c, 0x00, 0x00, 0x00, 0x08, 0x00, 0x00, 0x00,
  0x00, 0x00, 0x00, 0x00, 0x00, 0x00, 0x00, 0x00, 0x00, 0x00, 0x00, 0x00,
  0x00, 0x00, 0x00, 0x00, 0x00, 0x00, 0x00, 0x00, 0x00, 0x00, 0x00, 0x00,
  0x00, 0x00, 0x00, 0x00, 0x00, 0x00, 0x00, 0x00, 0x00, 0x00, 0x00, 0x00,
  0x00, 0x00, 0x00, 0x00, 0x00, 0x00, 0x00, 0x00, 0x00, 0x00, 0x00, 0x00,
  0x00, 0x00, 0x00, 0x00, 0x00, 0x00, 0x00, 0x00, 0x00, 0x00, 0x00, 0x00,
  0x00, 0x00, 0x00, 0x00, 0x00, 0x00, 0x00, 0x00, 0x08, 0x00, 0x00, 0x00,
  0xd7, 0x4b, 0x5c, 0x3b, 0xaf, 0xa6, 0x84, 0x3a, 0x74, 0xd1, 0xa4, 0x3b,
  0x99, 0x3c, 0x67, 0x3b, 0xb2, 0x27, 0x88, 0x3b, 0x97, 0x74, 0xa7, 0x3b,
  0xf9, 0x03, 0x53, 0x3b, 0xb8, 0x05, 0x44, 0x3b, 0x12, 0x00, 0x00, 0x00,
  0x74, 0x66, 0x6c, 0x2e, 0x70, 0x73, 0x65, 0x75, 0x64, 0x6f, 0x5f, 0x71,
  0x63, 0x6f, 0x6e, 0x73, 0x74, 0x33, 0x00, 0x00, 0x02, 0x00, 0x00, 0x00,
  0x08, 0x00, 0x00, 0x00, 0xa0, 0x01, 0x00, 0x00, 0x6a, 0xfe, 0xff, 0xff,
  0x00, 0x00, 0x00, 0x01, 0x14, 0x00, 0x00, 0x00, 0x84, 0x00, 0x00, 0x00,
  0x05, 0x00, 0x00, 0x00, 0x00, 0x00, 0x00, 0x02, 0x90, 0x00, 0x00, 0x00,
  0xe4, 0xfe, 0xff, 0xff, 0x08, 0x00, 0x00, 0x00, 0x48, 0x00, 0x00, 0x00,
  0x08, 0x00, 0x00, 0x00, 0x00, 0x00, 0x00, 0x00, 0x00, 0x00, 0x00, 0x00,
  0x00, 0x00, 0x00, 0x00, 0x00, 0x00, 0x00, 0x00, 0x00, 0x00, 0x00, 0x00,
  0x00, 0x00, 0x00, 0x00, 0x00, 0x00, 0x00, 0x00, 0x00, 0x00, 0x00, 0x00,
  0x00, 0x00, 0x00, 0x00, 0x00, 0x00, 0x00, 0x00, 0x00, 0x00, 0x00, 0x00,
  0x00, 0x00, 0x00, 0x00, 0x00, 0x00, 0x00, 0x00, 0x00, 0x00, 0x00, 0x00,
  0x00, 0x00, 0x00, 0x00, 0x00, 0x00, 0x00, 0x00, 0x08, 0x00, 0x00, 0x00,
  0x8a, 0x7d, 0x54, 0x37, 0xd2, 0xe6, 0x7f, 0x36, 0x65, 0xfa, 0x9e, 0x37,
  0x0f, 0x0b, 0x5f, 0x37, 0xa3, 0x54, 0x83, 0x37, 0x9b, 0x85, 0xa1, 0x37,
  0xdc, 0x89, 0x4b, 0x37, 0x9b, 0x13, 0x3d, 0x37, 0x12, 0x00, 0x00, 0x00,
  0x74, 0x66, 0x6c, 0x2e, 0x70, 0x73, 0x65, 0x75, 0x64, 0x6f, 0x5f, 0x71,
  0x63, 0x6f, 0x6e, 0x73, 0x74, 0x32, 0x00, 0x00, 0x01, 0x00, 0x00, 0x00,
  0x08, 0x00, 0x00, 0x00, 0x1a, 0xff, 0xff, 0xff, 0x00, 0x00, 0x00, 0x01,
  0x14, 0x00, 0x00, 0x00, 0x3c, 0x00, 0x00, 0x00, 0x04, 0x00, 0x00, 0x00,
  0x00, 0x00, 0x00, 0x09, 0x48, 0x00, 0x00, 0x00, 0x94, 0xff, 0xff, 0xff,
  0x08, 0x00, 0x00, 0x00, 0x18, 0x00, 0x00, 0x00, 0x02, 0x00, 0x00, 0x00,
  0x00, 0x00, 0x00, 0x00, 0x00, 0x00, 0x00, 0x00, 0x00, 0x00, 0x00, 0x00,
  0x00, 0x00, 0x00, 0x00, 0x02, 0x00, 0x00, 0x00, 0x6e, 0x7c, 0x06, 0x3c,
  0x15, 0x00, 0x0c, 0x3c, 0x12, 0x00, 0x00, 0x00, 0x74, 0x66, 0x6c, 0x2e,
  0x70, 0x73, 0x65, 0x75, 0x64, 0x6f, 0x5f, 0x71, 0x63, 0x6f, 0x6e, 0x73,
  0x74, 0x31, 0x00, 0x00, 0x02, 0x00, 0x00, 0x00, 0x02, 0x00, 0x00, 0x00,
  0x08, 0x00, 0x00, 0x00, 0x86, 0xff, 0xff, 0xff, 0x00, 0x00, 0x00, 0x01,
  0x20, 0x00, 0x00, 0x00, 0x4c, 0x00, 0x00, 0x00, 0x03, 0x00, 0x00, 0x00,
  0x00, 0x00, 0x00, 0x02, 0x58, 0x00, 0x00, 0x00, 0x0c, 0x00, 0x0c, 0x00,
  0x00, 0x00, 0x00, 0x00, 0x08, 0x00, 0x04, 0x00, 0x0c, 0x00, 0x00, 0x00,
  0x08, 0x00, 0x00, 0x00, 0x1c, 0x00, 0x00, 0x00, 0x02, 0x00, 0x00, 0x00,
  0x00, 0x00, 0x00, 0x00, 0x00, 0x00, 0x00, 0x00, 0x00, 0x00, 0x00, 0x00,
  0x00, 0x00, 0x00, 0x00, 0x00, 0x00, 0x00, 0x00, 0x02, 0x00, 0x00, 0x00,
  0x95, 0x4b, 0xec, 0x38, 0xe4, 0xfb, 0xf5, 0x38, 0x11, 0x00, 0x00, 0x00,
  0x74, 0x66, 0x6c, 0x2e, 0x70, 0x73, 0x65, 0x75, 0x64, 0x6f, 0x5f, 0x71,
  0x63, 0x6f, 0x6e, 0x73, 0x74, 0x00, 0x00, 0x00, 0x01, 0x00, 0x00, 0x00,
  0x02, 0x00, 0x00, 0x00, 0x00, 0x00, 0x16, 0x00, 0x1c, 0x00, 0x18, 0x00,
  0x17, 0x00, 0x10, 0x00, 0x0c, 0x00, 0x08, 0x00, 0x00, 0x00, 0x00, 0x00,
  0x00, 0x00, 0x07, 0x00, 0x16, 0x00, 0x00, 0x00, 0x00, 0x00, 0x00, 0x01,
  0x14, 0x00, 0x00, 0x00, 0x14, 0x00, 0x00, 0x00, 0x02, 0x00, 0x00, 0x00,
  0x00, 0x00, 0x00, 0x02, 0x1c, 0x00, 0x00, 0x00, 0x98, 0xff, 0xff, 0xff,
  0x0e, 0x00, 0x00, 0x00, 0x61, 0x72, 0x69, 0x74, 0x68, 0x2e, 0x63, 0x6f,
  0x6e, 0x73, 0x74, 0x61, 0x6e, 0x74, 0x00, 0x00, 0x01, 0x00, 0x00, 0x00,
  0x02, 0x00, 0x00, 0x00, 0x00, 0x00, 0x16, 0x00, 0x1c, 0x00, 0x18, 0x00,
  0x00, 0x00, 0x14, 0x00, 0x10, 0x00, 0x0c, 0x00, 0x00, 0x00, 0x00, 0x00,
  0x08, 0x00, 0x07, 0x00, 0x16, 0x00, 0x00, 0x00, 0x00, 0x00, 0x00, 0x01,
  0x14, 0x00, 0x00, 0x00, 0x28, 0x00, 0x00, 0x00, 0x28, 0x00, 0x00, 0x00,
  0x01, 0x00, 0x00, 0x00, 0x48, 0x00, 0x00, 0x00, 0x04, 0x00, 0x00, 0x00,
  0xff, 0xff, 0xff, 0xff, 0x68, 0x00, 0x00, 0x00, 0x06, 0x00, 0x00, 0x00,
  0x01, 0x00, 0x00, 0x00, 0x04, 0x00, 0x04, 0x00, 0x04, 0x00, 0x00, 0x00,
  0x21, 0x00, 0x00, 0x00, 0x73, 0x65, 0x72, 0x76, 0x69, 0x6e, 0x67, 0x5f,
  0x64, 0x65, 0x66, 0x61, 0x75, 0x6c, 0x74, 0x5f, 0x6b, 0x65, 0x72, 0x61,
  0x73, 0x5f, 0x74, 0x65, 0x6e, 0x73, 0x6f, 0x72, 0x5f, 0x32, 0x38, 0x3a,
  0x30, 0x00, 0x00, 0x00, 0x04, 0x00, 0x00, 0x00, 0x01, 0x00, 0x00, 0x00,
  0x68, 0x00, 0x00, 0x00, 0x06, 0x00, 0x00, 0x00, 0x01, 0x00, 0x00, 0x00,
  0x07, 0x00, 0x00, 0x00, 0x90, 0x00, 0x00, 0x00, 0x70, 0x00, 0x00, 0x00,
  0x50, 0x00, 0x00, 0x00, 0x40, 0x00, 0x00, 0x00, 0x2c, 0x00, 0x00, 0x00,
  0x18, 0x00, 0x00, 0x00, 0x04, 0x00, 0x00, 0x00, 0xb4, 0xff, 0xff, 0xff,
  0x06, 0x00, 0x00, 0x00, 0x02, 0x00, 0x00, 0x00, 0x00, 0x00, 0x00, 0x06,
  0xc4, 0xff, 0xff, 0xff, 0x19, 0x00, 0x00, 0x00, 0x02, 0x00, 0x00, 0x00,
  0x00, 0x00, 0x00, 0x19, 0xd4, 0xff, 0xff, 0xff, 0x09, 0x00, 0x00, 0x00,
  0x04, 0x00, 0x00, 0x00, 0x00, 0x00, 0x00, 0x09, 0xc8, 0xff, 0xff, 0xff,
  0x16, 0x00, 0x00, 0x00, 0x00, 0x00, 0x00, 0x16, 0xf0, 0xff, 0xff, 0xff,
  0x11, 0x00, 0x00, 0x00, 0x02, 0x00, 0x00, 0x00, 0x00, 0x00, 0x00, 0x11,
  0x0c, 0x00, 0x10, 0x00, 0x0f, 0x00, 0x00, 0x00, 0x08, 0x00, 0x04, 0x00,
  0x0c, 0x00, 0x00, 0x00, 0x03, 0x00, 0x00, 0x00, 0x03, 0x00, 0x00, 0x00,
  0x00, 0x00, 0x00, 0x03, 0x0c, 0x00, 0x0c, 0x00, 0x0b, 0x00, 0x00, 0x00,
  0x00, 0x00, 0x04, 0x00, 0x0c, 0x00, 0x00, 0x00, 0x72, 0x00, 0x00, 0x00,
  0x00, 0x00, 0x00, 0x72
};
