const unsigned char model[] = {
  0x20, 0x00, 0x00, 0x00, 0x54, 0x46, 0x4c, 0x33, 0x00, 0x00, 0x00, 0x00,
  0x14, 0x00, 0x20, 0x00, 0x1c, 0x00, 0x18, 0x00, 0x14, 0x00, 0x10, 0x00,
  0x0c, 0x00, 0x00, 0x00, 0x08, 0x00, 0x04, 0x00, 0x14, 0x00, 0x00, 0x00,
  0x1c, 0x00, 0x00, 0x00, 0x8c, 0x00, 0x00, 0x00, 0x0c, 0x01, 0x00, 0x00,
  0xac, 0x12, 0x00, 0x00, 0xbc, 0x12, 0x00, 0x00, 0x90, 0x1e, 0x00, 0x00,
  0x03, 0x00, 0x00, 0x00, 0x01, 0x00, 0x00, 0x00, 0x04, 0x00, 0x00, 0x00,
  0x2a, 0xec, 0xff, 0xff, 0x0c, 0x00, 0x00, 0x00, 0x1c, 0x00, 0x00, 0x00,
  0x3c, 0x00, 0x00, 0x00, 0x0f, 0x00, 0x00, 0x00, 0x73, 0x65, 0x72, 0x76,
  0x69, 0x6e, 0x67, 0x5f, 0x64, 0x65, 0x66, 0x61, 0x75, 0x6c, 0x74, 0x00,
  0x01, 0x00, 0x00, 0x00, 0x04, 0x00, 0x00, 0x00, 0x68, 0xff, 0xff, 0xff,
  0x0f, 0x00, 0x00, 0x00, 0x04, 0x00, 0x00, 0x00, 0x08, 0x00, 0x00, 0x00,
  0x6f, 0x75, 0x74, 0x70, 0x75, 0x74, 0x5f, 0x30, 0x00, 0x00, 0x00, 0x00,
  0x01, 0x00, 0x00, 0x00, 0x04, 0x00, 0x00, 0x00, 0x0e, 0xed, 0xff, 0xff,
  0x04, 0x00, 0x00, 0x00, 0x0f, 0x00, 0x00, 0x00, 0x6b, 0x65, 0x72, 0x61,
  0x73, 0x5f, 0x74, 0x65, 0x6e, 0x73, 0x6f, 0x72, 0x5f, 0x33, 0x36, 0x00,
  0x03, 0x00, 0x00, 0x00, 0x5c, 0x00, 0x00, 0x00, 0x2c, 0x00, 0x00, 0x00,
  0x04, 0x00, 0x00, 0x00, 0xb8, 0xff, 0xff, 0xff, 0x13, 0x00, 0x00, 0x00,
  0x04, 0x00, 0x00, 0x00, 0x13, 0x00, 0x00, 0x00, 0x43, 0x4f, 0x4e, 0x56,
  0x45, 0x52, 0x53, 0x49, 0x4f, 0x4e, 0x5f, 0x4d, 0x45, 0x54, 0x41, 0x44,
  0x41, 0x54, 0x41, 0x00, 0xdc, 0xff, 0xff, 0xff, 0x12, 0x00, 0x00, 0x00,
  0x04, 0x00, 0x00, 0x00, 0x13, 0x00, 0x00, 0x00, 0x6d, 0x69, 0x6e, 0x5f,
  0x72, 0x75, 0x6e, 0x74, 0x69, 0x6d, 0x65, 0x5f, 0x76, 0x65, 0x72, 0x73,
  0x69, 0x6f, 0x6e, 0x00, 0x08, 0x00, 0x0c, 0x00, 0x08, 0x00, 0x04, 0x00,
  0x08, 0x00, 0x00, 0x00, 0x11, 0x00, 0x00, 0x00, 0x04, 0x00, 0x00, 0x00,
  0x13, 0x00, 0x00, 0x00, 0x6d, 0x69, 0x6e, 0x5f, 0x72, 0x75, 0x6e, 0x74,
  0x69, 0x6d, 0x65, 0x5f, 0x76, 0x65, 0x72, 0x73, 0x69, 0x6f, 0x6e, 0x00,
  0x14, 0x00, 0x00, 0x00, 0x9c, 0x11, 0x00, 0x00, 0x94, 0x11, 0x00, 0x00,
  0x7c, 0x11, 0x00, 0x00, 0x64, 0x11, 0x00, 0x00, 0x44, 0x11, 0x00, 0x00,
  0x14, 0x11, 0x00, 0x00, 0x04, 0x04, 0x00, 0x00, 0xd4, 0x03, 0x00, 0x00,
  0xf4, 0x00, 0x00, 0x00, 0xec, 0x00, 0x00, 0x00, 0xe4, 0x00, 0x00, 0x00,
  0xdc, 0x00, 0x00, 0x00, 0xd4, 0x00, 0x00, 0x00, 0xcc, 0x00, 0x00, 0x00,
  0xc4, 0x00, 0x00, 0x00, 0xbc, 0x00, 0x00, 0x00, 0xb4, 0x00, 0x00, 0x00,
  0x94, 0x00, 0x00, 0x00, 0x74, 0x00, 0x00, 0x00, 0x04, 0x00, 0x00, 0x00,
  0x02, 0xee, 0xff, 0xff, 0x04, 0x00, 0x00, 0x00, 0x60, 0x00, 0x00, 0x00,
  0x0c, 0x00, 0x00, 0x00, 0x08, 0x00, 0x0e, 0x00, 0x08, 0x00, 0x04, 0x00,
  0x08, 0x00, 0x00, 0x00, 0x10, 0x00, 0x00, 0x00, 0x28, 0x00, 0x00, 0x00,
  0x00, 0x00, 0x06, 0x00, 0x08, 0x00, 0x04, 0x00, 0x06, 0x00, 0x00, 0x00,
  0x04, 0x00, 0x00, 0x00, 0x01, 0x00, 0x00, 0x00, 0xeb, 0x03, 0x00, 0x00,
  0x0c, 0x00, 0x18, 0x00, 0x14, 0x00, 0x10, 0x00, 0x0c, 0x00, 0x04, 0x00,
  0x0c, 0x00, 0x00, 0x00, 0x81, 0x13, 0xf5, 0x9e, 0xab, 0x9b, 0xc8, 0x75,
  0x02, 0x00, 0x00, 0x00, 0x02, 0x00, 0x00, 0x00, 0x04, 0x00, 0x00, 0x00,
  0x06, 0x00, 0x00, 0x00, 0x32, 0x2e, 0x31, 0x37, 0x2e, 0x30, 0x00, 0x00,
  0x6e, 0xee, 0xff, 0xff, 0x04, 0x00, 0x00, 0x00, 0x10, 0x00, 0x00, 0x00,
  0x00, 0x00, 0x00, 0x00, 0x00, 0x00, 0x00, 0x00, 0x00, 0x00, 0x00, 0x00,
  0x00, 0x00, 0x00, 0x00, 0x8a, 0xee, 0xff, 0xff, 0x04, 0x00, 0x00, 0x00,
  0x10, 0x00, 0x00, 0x00, 0x31, 0x2e, 0x31, 0x34, 0x2e, 0x30, 0x00, 0x00,
  0x00, 0x00, 0x00, 0x00, 0x00, 0x00, 0x00, 0x00, 0xac, 0xe3, 0xff, 0xff,
  0xb0, 0xe3, 0xff, 0xff, 0xb4, 0xe3, 0xff, 0xff, 0xb8, 0xe3, 0xff, 0xff,
  0xbc, 0xe3, 0xff, 0xff, 0xc0, 0xe3, 0xff, 0xff, 0xc4, 0xe3, 0xff, 0xff,
  0xc8, 0xe3, 0xff, 0xff, 0xc6, 0xee, 0xff, 0xff, 0x04, 0x00, 0x00, 0x00,
  0xd0, 0x02, 0x00, 0x00, 0x1d, 0x45, 0xd2, 0xda, 0x4e, 0x25, 0xbd, 0xf7,
  0xbe, 0xc1, 0x34, 0xf5, 0x0a, 0x11, 0xc5, 0x27, 0x30, 0xc9, 0xfb, 0xe1,
  0xd6, 0xe8, 0x4b, 0xc1, 0xd0, 0xe7, 0xe5, 0xd5, 0x11, 0xf5, 0xd3, 0x42,
  0x1c, 0x37, 0x4d, 0xf4, 0x0f, 0x3a, 0x1a, 0xc4, 0x27, 0xbb, 0x13, 0x40,
  0x13, 0x30, 0x27, 0xee, 0xde, 0x35, 0x15, 0xcb, 0xfc, 0x0e, 0x07, 0xe3,
  0xbf, 0x12, 0x31, 0xfd, 0xf6, 0xeb, 0x01, 0xe3, 0x24, 0x39, 0xa3, 0x0e,
  0xe7, 0x93, 0xbe, 0x2d, 0x81, 0xb9, 0x01, 0xd7, 0xcf, 0xd4, 0x10, 0xc7,
  0xce, 0xa1, 0xf7, 0xb9, 0xcb, 0x15, 0xd9, 0xcc, 0xcc, 0x03, 0x26, 0x0e,
  0xfc, 0x68, 0xed, 0x0c, 0x4d, 0x65, 0xd9, 0x61, 0xfe, 0x43, 0x5c, 0x0e,
  0x21, 0x1a, 0xfe, 0xe6, 0x32, 0x39, 0x37, 0xfe, 0x6a, 0xef, 0x38, 0xec,
  0xf7, 0x2c, 0xe7, 0xd7, 0x05, 0x1b, 0xa1, 0x18, 0x2d, 0xdc, 0x09, 0x38,
  0xd2, 0x1e, 0xcf, 0xcb, 0x35, 0x28, 0xcd, 0xc0, 0x62, 0xe9, 0x22, 0x07,
  0xae, 0x0d, 0x51, 0x38, 0xbb, 0x33, 0xcb, 0x32, 0x18, 0x0c, 0xc4, 0xee,
  0xe0, 0x37, 0x25, 0x17, 0x28, 0x04, 0x14, 0xe9, 0xbd, 0x00, 0x37, 0xf5,
  0xfe, 0x2a, 0x05, 0xde, 0xa8, 0x14, 0x24, 0xbf, 0xea, 0xd0, 0x02, 0xcd,
  0x2d, 0xa2, 0x81, 0x3a, 0xce, 0xc3, 0xf6, 0x8d, 0x29, 0xaf, 0x15, 0x84,
  0xb0, 0x53, 0xc4, 0x78, 0xf9, 0xb2, 0x40, 0x23, 0xa9, 0xe4, 0xeb, 0x53,
  0x9f, 0x51, 0x38, 0x9b, 0xe9, 0x5a, 0x55, 0x21, 0x3c, 0xdc, 0x0c, 0x69,
  0xc3, 0x9a, 0xa2, 0x41, 0x9a, 0xa4, 0xa4, 0xb0, 0x41, 0xca, 0x34, 0xbc,
  0xaa, 0xa6, 0x8a, 0x53, 0x8c, 0xb5, 0x65, 0xeb, 0xb5, 0xa0, 0xc1, 0x3c,
  0x70, 0xb2, 0x20, 0x1a, 0x3b, 0xa6, 0xf2, 0xaa, 0xd7, 0x45, 0x6f, 0xf0,
  0x0a, 0xb8, 0xed, 0x42, 0xd9, 0x29, 0xad, 0xb1, 0x52, 0xb0, 0x95, 0xef,
  0xd7, 0x9a, 0xdf, 0x81, 0x58, 0x25, 0x96, 0x2f, 0xcb, 0x15, 0x00, 0xea,
  0x07, 0x13, 0xc4, 0x24, 0xa5, 0xdf, 0xe9, 0x38, 0x29, 0x73, 0xbe, 0xdf,
  0x22, 0xca, 0xce, 0x13, 0xc5, 0xcb, 0x5d, 0x5a, 0xd6, 0x58, 0x10, 0xcb,
  0x71, 0x06, 0x34, 0x6d, 0x25, 0xda, 0x46, 0xe1, 0xdc, 0x5b, 0xec, 0x42,
  0x36, 0x21, 0xeb, 0x7f, 0x14, 0xd7, 0x52, 0xb3, 0xc2, 0xd5, 0x21, 0x29,
  0x55, 0x0a, 0xa2, 0xc9, 0xe2, 0x28, 0x61, 0xa4, 0x43, 0x44, 0xfc, 0x15,
  0x34, 0xea, 0xec, 0xef, 0xd4, 0x55, 0x52, 0x29, 0x5b, 0xc8, 0xac, 0xdb,
  0x03, 0xd7, 0x28, 0xb3, 0x19, 0x5d, 0x32, 0x4d, 0x16, 0xed, 0xd5, 0xbe,
  0xff, 0xaf, 0xcb, 0x52, 0x2a, 0xe6, 0xdb, 0x53, 0xec, 0x25, 0x32, 0x0c,
  0x20, 0x15, 0xc9, 0xe4, 0xb4, 0xe6, 0xf8, 0x9e, 0x0a, 0x0e, 0x93, 0x59,
  0xd6, 0xff, 0x58, 0xd0, 0x11, 0x15, 0x19, 0x2b, 0x01, 0x3a, 0x35, 0xa1,
  0x36, 0x41, 0xe6, 0x00, 0xd7, 0xf9, 0x03, 0xef, 0xff, 0x16, 0xca, 0x22,
  0x01, 0x1f, 0x34, 0xd7, 0x38, 0x4a, 0x81, 0xd8, 0xff, 0xd1, 0xd8, 0xba,
  0x34, 0x08, 0x9f, 0x62, 0xf9, 0xc9, 0x6a, 0xc8, 0xe5, 0x41, 0x1e, 0xfc,
  0xcf, 0xda, 0xe0, 0xb4, 0x23, 0x44, 0x92, 0x55, 0x56, 0xcf, 0x1e, 0x26,
  0xd9, 0xdd, 0x23, 0x23, 0xc3, 0xfe, 0x2f, 0x19, 0xc0, 0x39, 0xb6, 0x09,
  0x2d, 0x0f, 0xa1, 0x05, 0x23, 0x19, 0xc7, 0xf2, 0xf3, 0x0e, 0xcb, 0x81,
  0x40, 0x3c, 0x18, 0x5f, 0xfb, 0xe8, 0x34, 0x40, 0xf1, 0x26, 0x01, 0xa8,
  0x4e, 0xf4, 0xc8, 0x4f, 0x13, 0x00, 0xb8, 0x08, 0x1f, 0xd9, 0xca, 0xd3,
  0x30, 0x2c, 0x8e, 0x49, 0xcc, 0xff, 0x4b, 0xda, 0xca, 0x4f, 0x30, 0xe3,
  0x0a, 0xcc, 0x0a, 0xd4, 0xc0, 0xfe, 0xe4, 0xb6, 0x07, 0x21, 0x0f, 0xe0,
  0xe5, 0x2a, 0xb6, 0xcf, 0xa7, 0x07, 0x4c, 0xca, 0xe0, 0x16, 0xe4, 0xfd,
  0x49, 0xa3, 0x9f, 0x2b, 0xce, 0xa5, 0x3b, 0x0f, 0xeb, 0x47, 0xdb, 0x2c,
  0x31, 0xa8, 0x0f, 0xb7, 0xdc, 0xe8, 0xb3, 0x8d, 0x00, 0xcc, 0xb9, 0x2a,
  0xdc, 0xd0, 0xf6, 0xf6, 0xc0, 0xf4, 0x24, 0xd6, 0x24, 0x35, 0xa1, 0xf1,
  0x0c, 0xf2, 0x3f, 0xe2, 0xed, 0x1b, 0xe9, 0xcd, 0xe4, 0x0a, 0xbb, 0xce,
  0xc9, 0xa7, 0x24, 0x0e, 0xcc, 0xe5, 0xca, 0xc6, 0x2f, 0x0b, 0xf6, 0x18,
  0xca, 0x0c, 0xf9, 0xf9, 0xbe, 0xe7, 0x04, 0xc4, 0x32, 0x30, 0xde, 0x30,
  0xe9, 0xfc, 0x11, 0x03, 0xc2, 0x25, 0xca, 0xdd, 0x31, 0xdf, 0xcf, 0xd9,
  0x35, 0xe0, 0x26, 0x38, 0xe0, 0x04, 0x19, 0xe5, 0xfe, 0xc4, 0x05, 0x15,
  0xbf, 0x91, 0x1b, 0xaf, 0x81, 0x06, 0xe9, 0x93, 0xe9, 0xdd, 0x09, 0xe5,
  0x39, 0x2c, 0x15, 0x16, 0xda, 0xef, 0x42, 0x0f, 0xe3, 0xfb, 0xde, 0x18,
  0x38, 0xf5, 0xf5, 0x2a, 0xef, 0xeb, 0x09, 0xd8, 0x17, 0x2f, 0x35, 0x2b,
  0xe8, 0x0e, 0x2b, 0x04, 0xc9, 0x0a, 0x2e, 0xf5, 0x3a, 0xe1, 0x3b, 0xe2,
  0x1f, 0x0d, 0x19, 0x31, 0xda, 0xd5, 0x33, 0x44, 0x37, 0x2e, 0xc2, 0xc5,
  0x42, 0xb4, 0x3d, 0x46, 0xdc, 0xfe, 0x20, 0xf3, 0x0c, 0x19, 0x14, 0xba,
  0xba, 0x6a, 0xbb, 0xdd, 0xe8, 0xeb, 0xc8, 0xce, 0x49, 0x03, 0x0d, 0x3f,
  0xa1, 0x0f, 0xe0, 0xf0, 0x29, 0x34, 0xad, 0x4a, 0x38, 0x81, 0xc2, 0xb8,
  0xa6, 0x27, 0xc6, 0x16, 0xa2, 0xf1, 0xff, 0xff, 0x04, 0x00, 0x00, 0x00,
  0x20, 0x00, 0x00, 0x00, 0x94, 0xe5, 0xff, 0xff, 0x1d, 0xef, 0xff, 0xff,
  0x78, 0xf7, 0xff, 0xff, 0x3e, 0xf3, 0xff, 0xff, 0x11, 0x01, 0x00, 0x00,
  0x8c, 0xf9, 0xff, 0xff, 0x25, 0x02, 0x00, 0x00, 0x4a, 0xdd, 0xff, 0xff,
  0xce, 0xf1, 0xff, 0xff, 0x04, 0x00, 0x00, 0x00, 0x00, 0x0d, 0x00, 0x00,
  0xd0, 0x0b, 0xa0, 0xdf, 0xcd, 0x99, 0x4c, 0xa9, 0xe4, 0x34, 0x0f, 0x9d,
  0x83, 0x6e, 0xd5, 0xc5, 0x72, 0xee, 0xec, 0xc9, 0x02, 0x36, 0x37, 0x27,
  0x07, 0xfa, 0x05, 0x3b, 0x5a, 0x30, 0x65, 0xee, 0x73, 0x65, 0x30, 0xc7,
  0x05, 0xc1, 0x94, 0xc6, 0xf0, 0xea, 0x71, 0x81, 0xdc, 0x04, 0xcc, 0x15,
  0xdb, 0xb8, 0x08, 0xa8, 0xc3, 0x46, 0x8a, 0xc0, 0xe3, 0x23, 0x9c, 0xa3,
  0x5e, 0xd8, 0x00, 0xcd, 0xa5, 0x24, 0xb7, 0x2f, 0x30, 0x53, 0xf7, 0x15,
  0x86, 0xdb, 0x1b, 0x0b, 0x54, 0xac, 0xca, 0xf3, 0x18, 0xb1, 0x3e, 0x81,
  0x21, 0x28, 0x9e, 0xdd, 0x5d, 0xa1, 0x6f, 0x05, 0xce, 0x23, 0x25, 0xee,
  0xca, 0xf0, 0x55, 0x25, 0x25, 0xc0, 0x01, 0xd0, 0x18, 0x40, 0xd6, 0xcd,
  0xb9, 0xf6, 0x86, 0xdd, 0x62, 0x08, 0xbc, 0xfc, 0x72, 0x6d, 0xd0, 0xf1,
  0xe8, 0x44, 0x18, 0x8e, 0xbb, 0x42, 0x3e, 0x8a, 0x9f, 0xba, 0x1f, 0x55,
  0x2a, 0x5e, 0x21, 0x63, 0x05, 0x14, 0x15, 0xa2, 0xb8, 0x55, 0xf2, 0x15,
  0xd2, 0x1c, 0xbe, 0x0c, 0xf4, 0x6c, 0x8f, 0x35, 0xfb, 0x5c, 0xbd, 0xd8,
  0x3a, 0x63, 0x64, 0xfc, 0x95, 0x9b, 0xa5, 0x30, 0xf5, 0x14, 0xd6, 0x22,
  0x65, 0x57, 0xe6, 0x9d, 0x09, 0xe2, 0x3f, 0xa2, 0xd8, 0xfa, 0xc1, 0x02,
  0x99, 0x06, 0x86, 0x63, 0x57, 0x3c, 0x3b, 0xe6, 0xd3, 0x65, 0x53, 0x04,
  0xdb, 0x03, 0x8b, 0x90, 0x97, 0xfb, 0xa6, 0x54, 0x49, 0xb2, 0xae, 0x08,
  0x0e, 0x1b, 0x4b, 0x1d, 0xfa, 0xb4, 0x3a, 0x19, 0x3e, 0x5e, 0x2b, 0xd6,
  0x34, 0x3e, 0x76, 0x1e, 0x95, 0x58, 0x38, 0x43, 0x6a, 0x64, 0xab, 0x5b,
  0x2d, 0xe6, 0xac, 0xd3, 0x36, 0xb5, 0x9d, 0xca, 0xe1, 0x2b, 0xdb, 0x43,
  0xf7, 0x64, 0x94, 0xd6, 0xba, 0x53, 0x69, 0xc9, 0x29, 0xfa, 0x07, 0xb9,
  0x5f, 0x06, 0xd6, 0x93, 0xb4, 0xb1, 0xf5, 0x14, 0x06, 0x2e, 0xff, 0xe8,
  0x8b, 0xa1, 0x90, 0x61, 0x8c, 0xea, 0x9d, 0xf8, 0xd3, 0x41, 0x15, 0x5b,
  0xab, 0xe0, 0x18, 0x96, 0x42, 0x5d, 0x01, 0x40, 0xef, 0xef, 0xcd, 0xa9,
  0xa5, 0x25, 0x70, 0xa4, 0x2a, 0xd7, 0x0b, 0xb2, 0xb1, 0x73, 0x31, 0x52,
  0xb2, 0xc7, 0xcb, 0x48, 0xfd, 0x12, 0x9c, 0x5f, 0xbd, 0xbc, 0x46, 0x52,
  0x38, 0x9e, 0x0b, 0x41, 0xcc, 0x37, 0x73, 0x8c, 0xe6, 0x8e, 0x5d, 0x3a,
  0xb7, 0x84, 0x2e, 0x5d, 0x77, 0xda, 0x94, 0x67, 0x8f, 0x31, 0x22, 0x21,
  0xe2, 0x1e, 0x04, 0xe0, 0x64, 0xa4, 0xa2, 0x08, 0x46, 0x13, 0xe8, 0x4a,
  0x01, 0xbe, 0xed, 0xf7, 0xfb, 0xfa, 0x40, 0x20, 0xb8, 0x8e, 0x3a, 0x07,
  0xcb, 0x9a, 0x59, 0x19, 0xcd, 0xfa, 0x21, 0x8b, 0x6e, 0xcd, 0x5f, 0x3f,
  0xac, 0x4c, 0x1f, 0x99, 0x09, 0xdd, 0x77, 0xb7, 0x94, 0xb9, 0x00, 0xc7,
  0x12, 0x96, 0x1c, 0x57, 0x1c, 0x3c, 0xa1, 0x38, 0xe0, 0xc4, 0xa6, 0x8b,
  0xa3, 0x6e, 0x0a, 0xd9, 0xde, 0x89, 0xf2, 0x20, 0xda, 0x27, 0x17, 0xa4,
  0xf4, 0x6b, 0xb9, 0x87, 0xe2, 0x8e, 0xab, 0xc0, 0x0b, 0x13, 0x24, 0x19,
  0xbc, 0xa9, 0xf7, 0xe8, 0xad, 0xcd, 0x29, 0xa8, 0xc8, 0xc5, 0xf3, 0x19,
  0x1b, 0x00, 0x28, 0x39, 0x0a, 0xe0, 0xd5, 0x1e, 0x4b, 0x3b, 0xe3, 0xa9,
  0xf0, 0x39, 0xe1, 0xca, 0xd1, 0xf4, 0xd3, 0x0d, 0xb6, 0xfd, 0x01, 0x3d,
  0x48, 0xea, 0xf6, 0xd6, 0xd7, 0xe2, 0xd8, 0xdc, 0x36, 0xd1, 0x4b, 0xe5,
  0xac, 0xa9, 0x25, 0xc3, 0xf5, 0xe3, 0xf9, 0x02, 0x22, 0xb4, 0x1c, 0xc3,
  0xb7, 0x02, 0x05, 0xae, 0xcf, 0xd0, 0xfc, 0xc7, 0x18, 0xbd, 0x3e, 0xb6,
  0x06, 0x41, 0xd5, 0xe4, 0x28, 0x20, 0x35, 0xf3, 0xb0, 0xba, 0x09, 0x29,
  0x43, 0xee, 0x4c, 0xb1, 0xb9, 0x13, 0xad, 0xf0, 0x1a, 0x26, 0xc8, 0x22,
  0xe7, 0xd6, 0xe5, 0xe3, 0xb3, 0xd4, 0xc0, 0x20, 0x8b, 0xc4, 0xe5, 0xe3,
  0xf2, 0x15, 0xc7, 0x42, 0x04, 0x02, 0xaf, 0xef, 0xc7, 0x3e, 0xf4, 0xc3,
  0xb0, 0xab, 0xe7, 0x42, 0x35, 0x07, 0x36, 0xda, 0xdc, 0x21, 0xf9, 0x13,
  0xf7, 0x26, 0xe6, 0x1c, 0xc3, 0x22, 0x1b, 0xdd, 0xe4, 0xc4, 0x0b, 0x1d,
  0xff, 0x27, 0xd8, 0x2e, 0xc6, 0xbf, 0xfe, 0x2a, 0x88, 0xab, 0xbe, 0xc9,
  0xcc, 0x21, 0xdc, 0xbf, 0xef, 0x38, 0xd8, 0x06, 0x3f, 0xc8, 0x1b, 0x36,
  0x0a, 0x16, 0xfa, 0x1b, 0xdc, 0xc3, 0x47, 0xe1, 0x19, 0x22, 0x23, 0x23,
  0xd3, 0xd4, 0xfb, 0x33, 0x8d, 0xab, 0xbe, 0x31, 0xca, 0x38, 0xed, 0x2b,
  0x04, 0xdf, 0x18, 0xfd, 0x07, 0xbf, 0x3c, 0xda, 0xf7, 0x0a, 0xe7, 0x0e,
  0xea, 0xb7, 0x23, 0xb0, 0xb4, 0xfb, 0xe3, 0xc8, 0xc4, 0x0e, 0x05, 0x39,
  0x81, 0xc2, 0x1b, 0xd2, 0x18, 0xb3, 0xf9, 0xfa, 0x14, 0xe8, 0x28, 0x19,
  0x35, 0xcb, 0xfa, 0x05, 0xf2, 0xb1, 0x12, 0xfd, 0x53, 0x02, 0xf4, 0xd7,
  0xba, 0xe6, 0xfc, 0xc5, 0xef, 0x22, 0x48, 0x1e, 0x09, 0xc4, 0x06, 0xc1,
  0x36, 0x07, 0xf9, 0xe5, 0xc8, 0x32, 0xa8, 0xca, 0x22, 0xd7, 0xe6, 0xda,
  0xa7, 0xda, 0xc2, 0x1f, 0x3d, 0xb2, 0x42, 0xd7, 0xdf, 0xd0, 0xea, 0x16,
  0xf5, 0x34, 0xca, 0x31, 0x8d, 0xcc, 0xda, 0xfe, 0x46, 0xc9, 0xc8, 0x41,
  0x8f, 0xea, 0x0b, 0x38, 0x39, 0xce, 0xe3, 0x25, 0x9c, 0xde, 0xa3, 0x1e,
  0xff, 0x31, 0xf8, 0xc3, 0x95, 0xe9, 0x25, 0xef, 0xd4, 0xe8, 0xd3, 0xba,
  0xf6, 0x26, 0xd6, 0xac, 0x12, 0xb0, 0x3c, 0xec, 0xd3, 0xe3, 0xf8, 0x44,
  0x46, 0x11, 0x11, 0xe3, 0x17, 0x08, 0x18, 0xab, 0xcf, 0x36, 0x1a, 0x35,
  0xa0, 0x29, 0xe6, 0xfa, 0xff, 0xe5, 0xf5, 0xbb, 0x02, 0xd4, 0x22, 0x0c,
  0x47, 0x36, 0xf9, 0xc3, 0xf9, 0x06, 0xf6, 0xda, 0x21, 0xd3, 0x16, 0xe2,
  0xb9, 0xe8, 0xc4, 0xd7, 0x34, 0xe9, 0x21, 0x1e, 0xce, 0x3e, 0x07, 0x41,
  0xe8, 0xba, 0xea, 0x03, 0x22, 0x01, 0x07, 0xa9, 0xd4, 0xf7, 0x0b, 0xf8,
  0xdf, 0x05, 0xb7, 0x35, 0xfe, 0xdd, 0xe1, 0xd9, 0xd1, 0xeb, 0xe5, 0x05,
  0xf4, 0xe3, 0x23, 0xb8, 0xc9, 0x31, 0x1f, 0xc5, 0x23, 0xee, 0xc8, 0x2c,
  0xca, 0xd2, 0x01, 0xad, 0xe9, 0x00, 0xf1, 0xfe, 0xf6, 0xde, 0x16, 0x14,
  0xf3, 0x00, 0x13, 0x0c, 0xd3, 0xd1, 0x13, 0xf8, 0xf8, 0xf8, 0x0f, 0xf2,
  0xe5, 0xf1, 0xf7, 0xf9, 0xf0, 0x12, 0x11, 0x10, 0x00, 0xe8, 0xd9, 0xf5,
  0x0c, 0x05, 0xff, 0xfe, 0x00, 0xfe, 0x17, 0xff, 0x07, 0xe8, 0x09, 0x0d,
  0xf5, 0xe6, 0x1a, 0x12, 0xff, 0x0d, 0xec, 0xf3, 0xc0, 0xca, 0x10, 0x0c,
  0xf8, 0xf1, 0x08, 0x07, 0xad, 0xd0, 0xfc, 0xed, 0xdf, 0xf9, 0x0c, 0x12,
  0xa1, 0xd8, 0xe0, 0xeb, 0xed, 0xf7, 0xf4, 0x00, 0xbe, 0xeb, 0xf6, 0xe8,
  0xe2, 0xf9, 0x0d, 0xff, 0xaa, 0xcc, 0xe4, 0xee, 0xe7, 0xf7, 0x01, 0x01,
  0x94, 0xdb, 0xd3, 0x0d, 0x04, 0xfd, 0x09, 0x07, 0xa5, 0xd2, 0xf1, 0xee,
  0x00, 0xfb, 0x05, 0xf1, 0x8e, 0xe9, 0xd7, 0xe3, 0xea, 0xfd, 0x08, 0x05,
  0x8d, 0xc8, 0xeb, 0x02, 0xfc, 0x14, 0x0f, 0x0f, 0x91, 0xf7, 0xf3, 0xee,
  0xfc, 0xfe, 0x0c, 0x07, 0xb3, 0xd5, 0xdf, 0xec, 0x09, 0xfb, 0x08, 0xfc,
  0xa9, 0xe7, 0xea, 0x0d, 0x0b, 0x10, 0xe8, 0x15, 0xa7, 0xe2, 0xdd, 0xe8,
  0x11, 0x05, 0x15, 0xff, 0xa2, 0xda, 0xf4, 0x05, 0xeb, 0x09, 0x12, 0x04,
  0x8c, 0xd7, 0xd4, 0xe9, 0x0f, 0x0f, 0xf2, 0xfb, 0x9c, 0xd4, 0xef, 0x10,
  0xed, 0x00, 0x17, 0xee, 0x98, 0xea, 0xf2, 0x0f, 0x06, 0x11, 0x08, 0x07,
  0xaa, 0x08, 0xe1, 0xfa, 0x02, 0x09, 0x0f, 0x0a, 0x94, 0xe5, 0xfd, 0x11,
  0xfd, 0x16, 0xfb, 0xf5, 0x9d, 0xd6, 0xdf, 0x16, 0xe9, 0xee, 0x16, 0x11,
  0x97, 0x00, 0xd4, 0x02, 0xff, 0xfe, 0xf4, 0xfc, 0x99, 0xf7, 0xec, 0xef,
  0x0d, 0x0e, 0xed, 0xf3, 0x89, 0xe4, 0xf7, 0xf3, 0xf0, 0x1b, 0xfd, 0x02,
  0x81, 0xed, 0xe6, 0x08, 0x06, 0xf8, 0x0f, 0xfc, 0x8f, 0x02, 0xe0, 0xfe,
  0x12, 0x05, 0x08, 0x13, 0xa0, 0x0b, 0x01, 0x04, 0x0d, 0x05, 0xf6, 0x17,
  0x8d, 0x00, 0xd9, 0x17, 0x11, 0x08, 0xee, 0x10, 0xae, 0x12, 0xee, 0x03,
  0x05, 0xff, 0x01, 0x18, 0xa8, 0x03, 0xd8, 0x19, 0xf3, 0xf3, 0xff, 0x1c,
  0x9b, 0xf8, 0xf3, 0x16, 0x0c, 0x01, 0xf0, 0x14, 0xa3, 0x12, 0xee, 0xfe,
  0x19, 0x03, 0xf5, 0xff, 0x9b, 0xf8, 0xfc, 0xf0, 0xf4, 0x05, 0x05, 0x09,
  0xa0, 0x19, 0xfb, 0x06, 0x07, 0x05, 0x18, 0x1d, 0xbc, 0x16, 0xfb, 0x15,
  0x17, 0x19, 0xee, 0x0d, 0xca, 0x1e, 0x0d, 0x1a, 0xf7, 0x0e, 0x15, 0xf9,
  0xd6, 0x10, 0xed, 0x11, 0xf7, 0x0c, 0x19, 0x16, 0xd5, 0x1c, 0x0d, 0xfe,
  0xfa, 0x17, 0xfd, 0xfc, 0xe2, 0xf9, 0xff, 0xef, 0x13, 0x13, 0xef, 0x0e,
  0xea, 0x05, 0x04, 0xf8, 0xff, 0x19, 0xf1, 0x1e, 0xfa, 0x14, 0x0e, 0xf4,
  0xf3, 0x1d, 0x05, 0x17, 0x19, 0x1d, 0xed, 0xfe, 0x01, 0x18, 0x0c, 0xf9,
  0x10, 0x1c, 0x13, 0x1c, 0x07, 0x1a, 0x11, 0xff, 0x08, 0x09, 0x12, 0x00,
  0x1e, 0x21, 0x03, 0x04, 0x03, 0x07, 0x0f, 0x12, 0x10, 0x0b, 0x1a, 0x02,
  0x05, 0x17, 0xf6, 0x1c, 0x23, 0x17, 0xed, 0x11, 0x03, 0x2a, 0xe9, 0x12,
  0x08, 0xdc, 0x92, 0x08, 0x61, 0x24, 0x5f, 0x66, 0xff, 0x24, 0xb1, 0x9a,
  0xe1, 0x97, 0x8f, 0x9b, 0xbc, 0x0b, 0xa2, 0x36, 0x8b, 0xd5, 0x44, 0xbe,
  0x33, 0x51, 0x29, 0x18, 0x65, 0x52, 0x97, 0xa4, 0xf2, 0x2a, 0x54, 0x8c,
  0xaf, 0xf9, 0x60, 0x43, 0x2d, 0xfc, 0xa1, 0xf3, 0xdf, 0xb0, 0x5c, 0xa0,
  0x43, 0x4e, 0xcf, 0x88, 0xa6, 0x09, 0x10, 0x4e, 0x60, 0x07, 0x10, 0x9c,
  0x42, 0x3d, 0xcd, 0x32, 0x04, 0x64, 0x44, 0xe7, 0x31, 0x51, 0x27, 0x06,
  0x25, 0xcc, 0x90, 0x1c, 0xc2, 0x44, 0x50, 0xe8, 0xd8, 0x2f, 0x92, 0x83,
  0xee, 0x33, 0x3f, 0x21, 0x49, 0xed, 0xcb, 0x1a, 0xad, 0xd7, 0x97, 0x3a,
  0x4e, 0x9b, 0xfc, 0xa5, 0x68, 0x68, 0x23, 0xfa, 0xd7, 0xdd, 0x4d, 0x3f,
  0x53, 0xf2, 0x1c, 0xbe, 0xb8, 0x59, 0x1d, 0x25, 0xf3, 0x63, 0x04, 0x0f,
  0x5d, 0x5d, 0xba, 0x02, 0x97, 0xc1, 0x1a, 0x06, 0xb3, 0x46, 0xab, 0xd9,
  0x89, 0xb1, 0x2d, 0x17, 0x24, 0x02, 0x2e, 0x1a, 0xb1, 0x62, 0xe6, 0x96,
  0xb9, 0x66, 0x13, 0x46, 0x24, 0xe4, 0xd1, 0x0a, 0x46, 0xd8, 0xdf, 0xa3,
  0xc1, 0x32, 0x28, 0x9c, 0xea, 0x13, 0xf6, 0xd4, 0x9d, 0x68, 0x8e, 0x86,
  0x23, 0x9b, 0x13, 0x09, 0x39, 0x3d, 0xe5, 0xaa, 0x8a, 0x52, 0x07, 0xe7,
  0xb1, 0xee, 0x05, 0xc8, 0xa5, 0xb1, 0xb3, 0x34, 0x49, 0x59, 0x48, 0x9a,
  0x17, 0x23, 0xe9, 0xcf, 0x38, 0x9e, 0xc1, 0x27, 0x9c, 0xc4, 0xe3, 0xb1,
  0xd1, 0xa5, 0xb8, 0xc0, 0x36, 0x94, 0xcf, 0x1c, 0x5d, 0x01, 0xa7, 0xc4,
  0xfb, 0xa8, 0xa5, 0x05, 0xf1, 0x0d, 0xbd, 0xf2, 0xab, 0x36, 0xce, 0xb2,
  0x9b, 0xc0, 0xa7, 0xcf, 0x94, 0xa1, 0x90, 0x43, 0x2d, 0x92, 0x02, 0x9c,
  0x2f, 0x45, 0x0c, 0x96, 0x40, 0x60, 0x39, 0x38, 0xba, 0x9b, 0xd1, 0xf1,
  0x1c, 0x64, 0x96, 0xcf, 0xa9, 0x95, 0x33, 0xea, 0x05, 0xd1, 0xb4, 0x27,
  0xb7, 0xd9, 0x07, 0x03, 0x4e, 0x52, 0x48, 0xa2, 0x31, 0x50, 0x66, 0xa3,
  0x5c, 0x60, 0x2e, 0xdc, 0x29, 0x57, 0xe3, 0x99, 0x53, 0xb7, 0x1e, 0x96,
  0xa6, 0xc5, 0xd5, 0x3f, 0x52, 0x47, 0x37, 0x5f, 0x5f, 0x1e, 0xcf, 0xd7,
  0xe9, 0x4d, 0x09, 0x11, 0x23, 0x67, 0x53, 0x9c, 0xae, 0x39, 0xfa, 0xc4,
  0x1e, 0xd3, 0xc8, 0x81, 0x9a, 0x06, 0x35, 0x0b, 0x23, 0x09, 0x24, 0x5e,
  0x25, 0xb2, 0x3e, 0xf3, 0x17, 0x28, 0x17, 0x8d, 0x36, 0x01, 0xe8, 0x1f,
  0x0f, 0xc6, 0xed, 0x5b, 0xcb, 0xed, 0x9d, 0xb2, 0xd8, 0x01, 0x9c, 0x5d,
  0x3a, 0xd3, 0xd7, 0xe0, 0xe8, 0x1d, 0x15, 0x2a, 0x56, 0x00, 0xed, 0x4d,
  0x3f, 0x00, 0xd3, 0x3b, 0xcb, 0x07, 0x52, 0xc5, 0xe7, 0xea, 0x0c, 0xc3,
  0x1f, 0xbb, 0xc3, 0xc3, 0x5e, 0x09, 0x25, 0x55, 0x4f, 0x9c, 0x31, 0xf7,
  0xd4, 0x62, 0x5a, 0x61, 0x8d, 0xcc, 0x04, 0xc3, 0x31, 0xd9, 0x97, 0xe1,
  0x3f, 0x4b, 0xef, 0xc1, 0x36, 0xba, 0xb7, 0xb8, 0x5d, 0xfa, 0xc1, 0x24,
  0xa3, 0x04, 0x9c, 0x04, 0x34, 0x9d, 0xbe, 0x56, 0xdd, 0x2b, 0x02, 0x1a,
  0xf0, 0xe7, 0x06, 0x29, 0x1a, 0xba, 0x9e, 0x34, 0xd5, 0xbf, 0xc8, 0x02,
  0x1d, 0x33, 0xfa, 0x64, 0xac, 0xe9, 0x5d, 0xeb, 0x8a, 0xa7, 0xff, 0x86,
  0xdf, 0x97, 0x3d, 0x61, 0x8a, 0xf8, 0x26, 0x38, 0x54, 0xba, 0x91, 0x27,
  0x56, 0x58, 0x27, 0x83, 0x86, 0xef, 0xd6, 0xba, 0x1c, 0xc8, 0xd0, 0xc4,
  0xe6, 0xed, 0x09, 0x5f, 0x13, 0xca, 0x92, 0x4b, 0x60, 0x0c, 0xd6, 0x90,
  0x56, 0x6b, 0xa3, 0xa1, 0x8e, 0x6c, 0x97, 0x88, 0xde, 0xb6, 0x94, 0xb4,
  0xf2, 0xf2, 0x5e, 0xaa, 0x97, 0xed, 0x03, 0x25, 0x11, 0xe5, 0x65, 0xd7,
  0xa9, 0xe9, 0x0a, 0x31, 0xed, 0x34, 0x4d, 0x35, 0x86, 0x59, 0xa9, 0x5a,
  0x46, 0x53, 0xdf, 0x53, 0xb7, 0x2c, 0xdd, 0xa2, 0x29, 0x2d, 0x06, 0x89,
  0x20, 0xb6, 0xb7, 0x01, 0x26, 0xd9, 0x1e, 0x86, 0xac, 0xba, 0xce, 0xe7,
  0xce, 0x5a, 0x0d, 0xc9, 0x12, 0xa5, 0xe8, 0xab, 0xce, 0x30, 0xeb, 0xfb,
  0x44, 0x2c, 0xa5, 0x2d, 0xf2, 0xec, 0x69, 0x19, 0x31, 0x6c, 0x62, 0xe4,
  0xca, 0xf9, 0x34, 0xde, 0xdd, 0xff, 0x75, 0x1b, 0xf6, 0x64, 0xf5, 0xaf,
  0xe7, 0xd3, 0xd7, 0x5c, 0xed, 0xf7, 0x58, 0x16, 0x51, 0xbf, 0x24, 0x83,
  0x85, 0xc0, 0x43, 0x59, 0x35, 0xff, 0x12, 0x27, 0x31, 0x18, 0xc7, 0x67,
  0x8f, 0xf8, 0x16, 0xf3, 0x1a, 0x36, 0xa0, 0x53, 0x14, 0x84, 0xe6, 0xf3,
  0xba, 0x87, 0x40, 0xc5, 0x91, 0x1a, 0xd1, 0xa3, 0xfb, 0xba, 0x53, 0x1a,
  0x52, 0x99, 0x6a, 0x18, 0xa4, 0x38, 0x4a, 0xb8, 0xab, 0xd4, 0xa7, 0x4c,
  0x52, 0x87, 0xd6, 0x94, 0xcc, 0x03, 0x2c, 0x88, 0x00, 0x27, 0xca, 0x05,
  0x52, 0x97, 0xda, 0xc9, 0x33, 0x4f, 0x3c, 0x81, 0xb4, 0x8a, 0x51, 0x94,
  0x0f, 0x23, 0xa1, 0x37, 0x3c, 0x6b, 0xe1, 0x29, 0x46, 0x1f, 0xbf, 0xdd,
  0x54, 0xcc, 0x6a, 0x20, 0xf8, 0x03, 0xe7, 0x16, 0x45, 0x22, 0x60, 0x1d,
  0x55, 0xb7, 0xf5, 0x51, 0xd8, 0xef, 0x11, 0x41, 0x1b, 0xcf, 0x8f, 0x03,
  0x34, 0xdc, 0x44, 0xb2, 0x4d, 0xfe, 0x9e, 0xd3, 0xc8, 0x42, 0xd6, 0xbb,
  0xa6, 0x2d, 0x8b, 0x4a, 0x5f, 0x4a, 0xed, 0xb8, 0x3a, 0x06, 0xa5, 0xcd,
  0x4a, 0x9c, 0x37, 0xc6, 0x63, 0xbf, 0x30, 0x8b, 0x87, 0x45, 0xcc, 0xc5,
  0x42, 0xa1, 0x1a, 0x8f, 0x05, 0xdd, 0x5f, 0x65, 0x2b, 0x20, 0x5a, 0x53,
  0xa7, 0x66, 0x52, 0x49, 0x4e, 0xb2, 0xc1, 0x66, 0x2b, 0xa3, 0xa7, 0x6a,
  0x3b, 0x92, 0xbd, 0x39, 0x05, 0x09, 0x56, 0xe3, 0xde, 0xee, 0xd4, 0xaa,
  0x36, 0x9d, 0x8f, 0x36, 0x44, 0xe3, 0xb5, 0x47, 0x6c, 0xcd, 0xd6, 0x05,
  0x30, 0x97, 0x28, 0x2e, 0xa6, 0x96, 0x05, 0x3c, 0x40, 0xd0, 0xc3, 0xcd,
  0xd5, 0x11, 0x6d, 0x08, 0x18, 0xaa, 0x4c, 0xfa, 0x29, 0x5f, 0x97, 0xa8,
  0x68, 0xdc, 0x52, 0x93, 0x47, 0xd9, 0xab, 0x89, 0xa6, 0x3b, 0x55, 0xd0,
  0x4e, 0xff, 0xfb, 0xec, 0x23, 0xaf, 0x88, 0x24, 0xda, 0xed, 0xbc, 0x0a,
  0xda, 0x43, 0xba, 0xb3, 0xf6, 0x02, 0x07, 0xf1, 0xfd, 0xd8, 0x20, 0xec,
  0x14, 0x00, 0xed, 0xf0, 0xe8, 0xda, 0x16, 0xef, 0xf7, 0xec, 0xf1, 0x02,
  0xed, 0xe9, 0xf5, 0xfd, 0xf4, 0x04, 0xf9, 0x17, 0x0f, 0xde, 0xf3, 0x0c,
  0x03, 0xfd, 0xfd, 0x00, 0xf4, 0xdf, 0x0f, 0xee, 0x08, 0xfa, 0xf6, 0x11,
  0xf8, 0xd8, 0x20, 0xf5, 0xf9, 0x0c, 0xfb, 0xf6, 0xd6, 0xd7, 0x14, 0x06,
  0xe0, 0x06, 0x04, 0x0f, 0xa3, 0xcb, 0xea, 0xf1, 0xf4, 0x11, 0x16, 0x0d,
  0x93, 0xe7, 0xd6, 0x12, 0xf0, 0xf9, 0xfb, 0x03, 0x8d, 0xe5, 0xe5, 0xf5,
  0xea, 0x14, 0xf9, 0xf4, 0x91, 0xd2, 0xe0, 0xeb, 0x08, 0x10, 0x0f, 0x07,
  0x8e, 0xcc, 0xe3, 0x01, 0xf2, 0xf6, 0x01, 0x0b, 0xa9, 0xd0, 0xd2, 0xf8,
  0xfc, 0x16, 0x0d, 0x0a, 0x87, 0xd2, 0xec, 0xfb, 0x0b, 0xf9, 0xf2, 0x03,
  0x96, 0xf1, 0xdd, 0x11, 0xf2, 0x16, 0xf8, 0xf2, 0xaa, 0xce, 0xf0, 0x0c,
  0xf8, 0xf5, 0x15, 0xf1, 0x9d, 0xec, 0xf8, 0xfc, 0xfc, 0xf8, 0xf8, 0xf4,
  0x8b, 0xe2, 0xcf, 0xf3, 0x0e, 0x07, 0xfd, 0xfb, 0x89, 0xd7, 0xd6, 0xf2,
  0xf1, 0x0e, 0xfd, 0x0d, 0xa3, 0xdc, 0xd8, 0xfc, 0x0c, 0x0d, 0x0e, 0x15,
  0x9a, 0xd0, 0xcc, 0x09, 0x1d, 0xfe, 0xf5, 0xfe, 0x9d, 0xf3, 0xda, 0xfc,
  0x13, 0xfd, 0xff, 0x01, 0x8c, 0xf5, 0xd2, 0xef, 0xed, 0x04, 0x0d, 0x0d,
  0x9f, 0xe6, 0xeb, 0x06, 0x08, 0xf6, 0xee, 0x0f, 0xb3, 0xec, 0xda, 0x0c,
  0x08, 0x05, 0xf1, 0x06, 0x93, 0xfb, 0xd3, 0x08, 0xf2, 0x08, 0x07, 0x14,
  0x96, 0xe1, 0xd6, 0x10, 0xfc, 0x08, 0xf6, 0xf5, 0x84, 0xdf, 0xe3, 0xfe,
  0x12, 0xf7, 0x02, 0x0b, 0x89, 0xe5, 0xf5, 0xfe, 0xf1, 0xf5, 0xed, 0x0e,
  0x89, 0xf3, 0xe3, 0xf2, 0x04, 0x13, 0x0f, 0xf9, 0x8d, 0xee, 0xd6, 0x11,
  0xf8, 0xf3, 0xed, 0xfc, 0x97, 0xf1, 0xdc, 0xfe, 0xf2, 0x02, 0xfe, 0x1b,
  0x81, 0x0f, 0xf5, 0xfa, 0xfc, 0xf6, 0x01, 0x1b, 0x94, 0x03, 0x00, 0xfa,
  0x05, 0x1b, 0xf5, 0x04, 0x92, 0xf9, 0xef, 0x13, 0xfc, 0x10, 0xec, 0x11,
  0x82, 0xfc, 0xf3, 0x10, 0x15, 0x0d, 0x01, 0xfa, 0x96, 0xf4, 0xf0, 0x11,
  0x28, 0x01, 0xff, 0x04, 0xb1, 0xf9, 0xe9, 0xfc, 0x18, 0x03, 0xf0, 0x1c,
  0x94, 0x01, 0xfd, 0x0b, 0x16, 0x0d, 0x07, 0x1a, 0xab, 0x12, 0xf8, 0x09,
  0x06, 0xf8, 0xf4, 0x1d, 0xa6, 0x09, 0x01, 0x18, 0xfb, 0x13, 0x15, 0x1f,
  0xd8, 0x12, 0xe9, 0x12, 0xfc, 0xfc, 0xf5, 0x09, 0xd9, 0x01, 0xf8, 0x0b,
  0x20, 0x01, 0xf4, 0x12, 0xe4, 0x06, 0xed, 0x10, 0x06, 0x09, 0xfc, 0x09,
  0x12, 0x30, 0x05, 0x0f, 0x2c, 0x13, 0x0b, 0x0e, 0x0f, 0x19, 0xfb, 0x19,
  0xe4, 0x15, 0x03, 0x09, 0x22, 0x14, 0x1a, 0x01, 0x0e, 0x08, 0xea, 0x10,
  0x16, 0x2b, 0xf1, 0x08, 0x07, 0x03, 0x13, 0xfe, 0x09, 0x39, 0xf3, 0x09,
  0x1c, 0x13, 0xfa, 0x01, 0x04, 0x39, 0xf9, 0x14, 0xff, 0x14, 0x10, 0x03,
  0x26, 0x22, 0x1b, 0x16, 0x24, 0x19, 0xf7, 0xff, 0x0e, 0x30, 0x0a, 0x04,
  0x02, 0xfe, 0x08, 0xf1, 0x27, 0x3a, 0xf7, 0x13, 0x09, 0xfd, 0xf6, 0x04,
  0x2b, 0x35, 0x07, 0x09, 0x13, 0x0d, 0x06, 0xfb, 0x13, 0x27, 0x33, 0x10,
  0x07, 0xfa, 0xf8, 0xef, 0x06, 0x27, 0x12, 0x16, 0x01, 0xf4, 0xf1, 0xf7,
  0x10, 0x2a, 0x02, 0x1b, 0x18, 0x02, 0xf4, 0xfa, 0x17, 0x26, 0x0e, 0x0d,
  0x06, 0x0c, 0x06, 0xfd, 0x37, 0x30, 0x0a, 0x05, 0x15, 0x00, 0x01, 0x12,
  0x46, 0x1b, 0x10, 0x0b, 0x0d, 0xfa, 0x0d, 0xf7, 0x49, 0x1d, 0x15, 0x10,
  0x0f, 0x06, 0x0f, 0x0c, 0x52, 0x3c, 0x20, 0x0c, 0x26, 0x0f, 0x07, 0x0b,
  0x63, 0x1d, 0x11, 0xf8, 0x14, 0xf9, 0xf6, 0xfc, 0x6a, 0x1b, 0x24, 0x09,
  0x17, 0x13, 0x0b, 0x0e, 0x69, 0x2f, 0x28, 0xfe, 0x2d, 0x02, 0x04, 0x0a,
  0x60, 0x2e, 0x21, 0x01, 0x20, 0xfb, 0xf2, 0x0e, 0x74, 0x39, 0x1f, 0x0b,
  0x22, 0x0e, 0xf2, 0x0a, 0x6d, 0x1b, 0x1a, 0x03, 0x1a, 0x00, 0xfc, 0x04,
  0x79, 0x22, 0x24, 0x12, 0x1c, 0x0f, 0xff, 0x00, 0x6e, 0x1b, 0x18, 0x03,
  0x23, 0x12, 0x0e, 0x0d, 0x7e, 0x2f, 0x2a, 0x0f, 0x10, 0x10, 0x0f, 0x04,
  0x7a, 0x25, 0x1a, 0x0c, 0x1d, 0x14, 0xef, 0xfd, 0x75, 0x1d, 0x27, 0x17,
  0x03, 0x00, 0x0f, 0xf4, 0x74, 0x1d, 0x2d, 0x0b, 0x1a, 0xff, 0x00, 0x08,
  0x6f, 0x2a, 0x2d, 0x04, 0x09, 0x0b, 0xf1, 0x09, 0x62, 0x2a, 0x1e, 0x02,
  0x17, 0xfe, 0x07, 0xf4, 0x6e, 0x0d, 0x23, 0x18, 0x07, 0x0f, 0x04, 0x03,
  0x7f, 0x17, 0x2f, 0x05, 0x1e, 0x00, 0x08, 0xf3, 0x70, 0x0d, 0x30, 0x0d,
  0x19, 0x04, 0xf1, 0x04, 0x78, 0x0e, 0x26, 0x13, 0x0d, 0x0c, 0xff, 0xfa,
  0x61, 0x1a, 0x2f, 0xfb, 0x16, 0x0c, 0x0e, 0xef, 0x6f, 0x0a, 0x26, 0xf7,
  0x08, 0xf2, 0xfc, 0xfa, 0x75, 0x07, 0x14, 0x15, 0xfe, 0x06, 0x10, 0x08,
  0x63, 0x1d, 0x2f, 0x04, 0x0d, 0xfb, 0xf4, 0xf8, 0x66, 0x1c, 0x2d, 0xf5,
  0x0f, 0xf6, 0xef, 0x05, 0x70, 0x10, 0x0b, 0xfa, 0x07, 0xfd, 0x07, 0xef,
  0x7c, 0x13, 0x17, 0x11, 0xff, 0x00, 0x10, 0xee, 0x65, 0x15, 0x21, 0x0a,
  0x11, 0x0a, 0x0d, 0xf7, 0x73, 0x01, 0x18, 0x05, 0xfc, 0xff, 0xf1, 0xef,
  0x63, 0x09, 0x05, 0x06, 0x08, 0xf5, 0x0e, 0x09, 0x5f, 0x0d, 0x0a, 0x07,
  0xfe, 0x05, 0xf2, 0x01, 0x50, 0xfa, 0x17, 0x0a, 0x0c, 0xff, 0xff, 0x09,
  0x5c, 0xf6, 0x0f, 0xff, 0xf9, 0xf9, 0x00, 0xf4, 0x51, 0xfd, 0x1e, 0x07,
  0xfe, 0x01, 0x00, 0xf4, 0x44, 0x09, 0x1c, 0xee, 0x00, 0xf1, 0xfd, 0xee,
  0x27, 0xf0, 0x06, 0xee, 0x0f, 0x06, 0xf5, 0x03, 0x1e, 0xeb, 0x07, 0xfe,
  0x0a, 0xf4, 0xf5, 0x07, 0xfa, 0x03, 0xfe, 0x01, 0x01, 0xf5, 0xf8, 0xec,
  0xf6, 0xf2, 0x10, 0x01, 0xe9, 0xfe, 0xfe, 0xf6, 0x00, 0x00, 0xfc, 0x00,
  0xfb, 0xe8, 0x0b, 0xed, 0x05, 0xf2, 0xfe, 0xff, 0xef, 0xf9, 0x00, 0xf1,
  0x0b, 0xee, 0x0f, 0x00, 0xe8, 0xfc, 0xfd, 0xf2, 0x07, 0xce, 0xff, 0xff,
  0xe1, 0xfa, 0xf2, 0x09, 0x01, 0xd3, 0xfb, 0xf1, 0x97, 0x35, 0xc1, 0x37,
  0x8a, 0xca, 0xd4, 0x54, 0x40, 0xab, 0x2d, 0x3b, 0x87, 0x9c, 0xde, 0xc8,
  0x54, 0x40, 0x2b, 0x8c, 0x1a, 0xde, 0xa9, 0xc7, 0xda, 0xbc, 0x41, 0xac,
  0x90, 0xcb, 0x2d, 0xab, 0x6b, 0x9b, 0xd7, 0xb5, 0x9c, 0x00, 0x9f, 0xda,
  0x54, 0x65, 0xfe, 0x6a, 0xfa, 0xf1, 0xfe, 0xe0, 0xa0, 0xa3, 0xe4, 0xb5,
  0x2e, 0x3e, 0x04, 0x63, 0xdd, 0xf1, 0x40, 0x9e, 0xf1, 0x54, 0xa5, 0x51,
  0xbb, 0x87, 0xab, 0xb4, 0x6a, 0xb5, 0xb5, 0x58, 0xe5, 0x2a, 0xc5, 0xc5,
  0x51, 0xd7, 0x25, 0x2f, 0x43, 0xdc, 0x8c, 0xaa, 0x63, 0xd8, 0x50, 0x82,
  0x45, 0x25, 0x3b, 0xb9, 0x48, 0x50, 0xa5, 0x9c, 0xe6, 0x62, 0x34, 0xe1,
  0xbc, 0x46, 0x44, 0x5f, 0xe9, 0x47, 0x54, 0x3a, 0x89, 0x24, 0xbf, 0x13,
  0x51, 0xfc, 0x96, 0xff, 0xe4, 0x5a, 0xbc, 0xdf, 0xa3, 0x5c, 0xe7, 0x46,
  0xb1, 0x33, 0xdf, 0xbe, 0x9d, 0x44, 0xef, 0x41, 0xdd, 0x62, 0xad, 0xda,
  0x32, 0xd1, 0xc1, 0xe8, 0xb7, 0x96, 0xab, 0xf7, 0xd1, 0xee, 0xf7, 0x35,
  0x5b, 0x50, 0x26, 0x35, 0x28, 0xb2, 0xf6, 0xbf, 0x4e, 0x6d, 0x4f, 0xd9,
  0x1d, 0xec, 0xf7, 0x1c, 0xa6, 0x53, 0x0c, 0xee, 0x9b, 0x67, 0xc8, 0x26,
  0xac, 0x13, 0x28, 0xcb, 0xfe, 0x93, 0xbc, 0x6a, 0x2b, 0x0b, 0x9c, 0x53,
  0xeb, 0x10, 0x2d, 0xda, 0xf3, 0x2d, 0x4d, 0xc5, 0x61, 0x18, 0x8b, 0x51,
  0x4f, 0xca, 0x3e, 0xa0, 0xd2, 0x13, 0x94, 0x82, 0x47, 0x65, 0x6e, 0xe8,
  0x3c, 0xed, 0x6c, 0x93, 0x1f, 0x4b, 0x68, 0x55, 0xd6, 0x9c, 0x64, 0xaf,
  0x0a, 0xae, 0x29, 0x47, 0x53, 0x08, 0x39, 0x16, 0xf6, 0x14, 0x85, 0xc6,
  0x88, 0x84, 0xa8, 0x14, 0xc9, 0xf5, 0xe1, 0x37, 0x6b, 0x36, 0xec, 0xf8,
  0xcb, 0x5c, 0x83, 0x2c, 0x70, 0x8f, 0x5d, 0x0a, 0x3a, 0x13, 0x19, 0x22,
  0x49, 0x16, 0xec, 0x1b, 0x31, 0xe1, 0xa0, 0xaa, 0x92, 0xa6, 0x89, 0x2d,
  0x5a, 0x5c, 0xb7, 0xc9, 0x69, 0xa1, 0x2a, 0x87, 0x25, 0x6d, 0xf2, 0x0c,
  0x57, 0x9f, 0x5b, 0x59, 0xcf, 0xfe, 0x11, 0x47, 0xb8, 0x93, 0x34, 0xe4,
  0x33, 0xdf, 0x15, 0x85, 0x3b, 0xe4, 0x94, 0x41, 0xb9, 0x2e, 0x6d, 0xe4,
  0xff, 0xd3, 0xde, 0x85, 0xea, 0x88, 0xfe, 0x4e, 0xb2, 0x3f, 0x29, 0xd3,
  0x10, 0x38, 0x0f, 0xe0, 0x01, 0xd9, 0x6e, 0xbf, 0x4d, 0x39, 0xbe, 0x14,
  0x82, 0xc3, 0x4e, 0x51, 0xfe, 0xde, 0xf8, 0x51, 0x53, 0x81, 0x72, 0xdd,
  0xb5, 0xec, 0x3b, 0xe9, 0x21, 0xc8, 0xc7, 0x1e, 0x15, 0x8c, 0xdc, 0x90,
  0xce, 0x66, 0xdb, 0xc6, 0x06, 0xec, 0x49, 0x60, 0x4d, 0x5d, 0xa5, 0x19,
  0xa2, 0x83, 0x2e, 0x93, 0x63, 0x85, 0x19, 0x3f, 0xb5, 0x97, 0xa3, 0xf4,
  0x67, 0xc1, 0xc0, 0xa7, 0x50, 0x66, 0xc7, 0x1c, 0xd0, 0x9f, 0x05, 0xf9,
  0x6d, 0x63, 0xd3, 0x3e, 0xa2, 0xa6, 0x96, 0x69, 0x20, 0xc8, 0xb3, 0xd4,
  0xf2, 0xcb, 0x5d, 0x88, 0x0a, 0x41, 0xfb, 0x83, 0xc8, 0xad, 0xa0, 0x07,
  0x92, 0x40, 0xfa, 0xde, 0xda, 0xfe, 0xff, 0xff, 0x04, 0x00, 0x00, 0x00,
  0x20, 0x00, 0x00, 0x00, 0x59, 0xf4, 0xff, 0xff, 0xda, 0xf1, 0xff, 0xff,
  0x9d, 0x05, 0x00, 0x00, 0x46, 0xf5, 0xff, 0xff, 0x9f, 0xf6, 0xff, 0xff,
  0x52, 0x0a, 0x00, 0x00, 0xf3, 0xff, 0xff, 0xff, 0xb3, 0xf5, 0xff, 0xff,
  0x06, 0xff, 0xff, 0xff, 0x04, 0x00, 0x00, 0x00, 0x10, 0x00, 0x00, 0x00,
  0xdb, 0xe6, 0xd7, 0xc2, 0x41, 0xee, 0x7f, 0x95, 0xea, 0x16, 0x7d, 0x47,
  0x32, 0x7f, 0x0e, 0x35, 0x22, 0xff, 0xff, 0xff, 0x04, 0x00, 0x00, 0x00,
  0x08, 0x00, 0x00, 0x00, 0x4f, 0x05, 0x00, 0x00, 0x93, 0xfc, 0xff, 0xff,
  0x36, 0xff, 0xff, 0xff, 0x04, 0x00, 0x00, 0x00, 0x08, 0x00, 0x00, 0x00,
  0xff, 0xff, 0xff, 0xff, 0xa0, 0x01, 0x00, 0x00, 0x50, 0xf4, 0xff, 0xff,
  0x54, 0xf4, 0xff, 0xff, 0x0f, 0x00, 0x00, 0x00, 0x4d, 0x4c, 0x49, 0x52,
  0x20, 0x43, 0x6f, 0x6e, 0x76, 0x65, 0x72, 0x74, 0x65, 0x64, 0x2e, 0x00,
  0x01, 0x00, 0x00, 0x00, 0x14, 0x00, 0x00, 0x00, 0x00, 0x00, 0x0e, 0x00,
  0x18, 0x00, 0x14, 0x00, 0x10, 0x00, 0x0c, 0x00, 0x08, 0x00, 0x04, 0x00,
  0x0e, 0x00, 0x00, 0x00, 0x14, 0x00, 0x00, 0x00, 0x1c, 0x00, 0x00, 0x00,
  0x0c, 0x02, 0x00, 0x00, 0x10, 0x02, 0x00, 0x00, 0x14, 0x02, 0x00, 0x00,
  0x04, 0x00, 0x00, 0x00, 0x6d, 0x61, 0x69, 0x6e, 0x00, 0x00, 0x00, 0x00,
  0x08, 0x00, 0x00, 0x00, 0xd4, 0x01, 0x00, 0x00, 0x78, 0x01, 0x00, 0x00,
  0x14, 0x01, 0x00, 0x00, 0xec, 0x00, 0x00, 0x00, 0x9c, 0x00, 0x00, 0x00,
  0x64, 0x00, 0x00, 0x00, 0x28, 0x00, 0x00, 0x00, 0x04, 0x00, 0x00, 0x00,
  0x32, 0xff, 0xff, 0xff, 0x0c, 0x00, 0x00, 0x00, 0x10, 0x00, 0x00, 0x00,
  0x06, 0x00, 0x00, 0x00, 0x01, 0x00, 0x00, 0x00, 0x0f, 0x00, 0x00, 0x00,
  0x01, 0x00, 0x00, 0x00, 0x0e, 0x00, 0x00, 0x00, 0xd2, 0xfe, 0xff, 0xff,
  0x1c, 0x00, 0x00, 0x00, 0x00, 0x00, 0x00, 0x09, 0x1c, 0x00, 0x00, 0x00,
  0x20, 0x00, 0x00, 0x00, 0x05, 0x00, 0x00, 0x00, 0x00, 0x00, 0x06, 0x00,
  0x08, 0x00, 0x04, 0x00, 0x06, 0x00, 0x00, 0x00, 0x00, 0x00, 0x80, 0x3f,
  0x01, 0x00, 0x00, 0x00, 0x0e, 0x00, 0x00, 0x00, 0x01, 0x00, 0x00, 0x00,
  0x0d, 0x00, 0x00, 0x00, 0x0a, 0xff, 0xff, 0xff, 0x14, 0x00, 0x00, 0x00,
  0x00, 0x00, 0x00, 0x08, 0x10, 0x00, 0x00, 0x00, 0x14, 0x00, 0x00, 0x00,
  0x04, 0x00, 0x00, 0x00, 0x3c, 0xf5, 0xff, 0xff, 0x01, 0x00, 0x00, 0x00,
  0x0d, 0x00, 0x00, 0x00, 0x03, 0x00, 0x00, 0x00, 0x0c, 0x00, 0x00, 0x00,
  0x03, 0x00, 0x00, 0x00, 0x02, 0x00, 0x00, 0x00, 0x3e, 0xff, 0xff, 0xff,
  0x1c, 0x00, 0x00, 0x00, 0x00, 0x00, 0x00, 0x08, 0x1c, 0x00, 0x00, 0x00,
  0x20, 0x00, 0x00, 0x00, 0x04, 0x00, 0x00, 0x00, 0x00, 0x00, 0x06, 0x00,
  0x08, 0x00, 0x07, 0x00, 0x06, 0x00, 0x00, 0x00, 0x00, 0x00, 0x00, 0x01,
  0x01, 0x00, 0x00, 0x00, 0x0c, 0x00, 0x00, 0x00, 0x03, 0x00, 0x00, 0x00,
  0x0b, 0x00, 0x00, 0x00, 0x05, 0x00, 0x00, 0x00, 0x04, 0x00, 0x00, 0x00,
  0x00, 0x00, 0x0a, 0x00, 0x10, 0x00, 0x0c, 0x00, 0x08, 0x00, 0x04, 0x00,
  0x0a, 0x00, 0x00, 0x00, 0x0c, 0x00, 0x00, 0x00, 0x10, 0x00, 0x00, 0x00,
  0x03, 0x00, 0x00, 0x00, 0x01, 0x00, 0x00, 0x00, 0x0b, 0x00, 0x00, 0x00,
  0x02, 0x00, 0x00, 0x00, 0x0a, 0x00, 0x00, 0x00, 0x01, 0x00, 0x00, 0x00,
  0xae, 0xff, 0xff, 0xff, 0x24, 0x00, 0x00, 0x00, 0x00, 0x00, 0x00, 0x05,
  0x34, 0x00, 0x00, 0x00, 0x38, 0x00, 0x00, 0x00, 0x02, 0x00, 0x00, 0x00,
  0x00, 0x00, 0x0e, 0x00, 0x18, 0x00, 0x17, 0x00, 0x10, 0x00, 0x0c, 0x00,
  0x08, 0x00, 0x04, 0x00, 0x0e, 0x00, 0x00, 0x00, 0x02, 0x00, 0x00, 0x00,
  0x06, 0x00, 0x00, 0x00, 0x02, 0x00, 0x00, 0x00, 0x06, 0x00, 0x00, 0x00,
  0x00, 0x00, 0x00, 0x01, 0x01, 0x00, 0x00, 0x00, 0x0a, 0x00, 0x00, 0x00,
  0x01, 0x00, 0x00, 0x00, 0x09, 0x00, 0x00, 0x00, 0x00, 0x00, 0x0e, 0x00,
  0x18, 0x00, 0x14, 0x00, 0x10, 0x00, 0x0c, 0x00, 0x0b, 0x00, 0x04, 0x00,
  0x0e, 0x00, 0x00, 0x00, 0x20, 0x00, 0x00, 0x00, 0x00, 0x00, 0x00, 0x01,
  0x28, 0x00, 0x00, 0x00, 0x2c, 0x00, 0x00, 0x00, 0x01, 0x00, 0x00, 0x00,
  0x0c, 0x00, 0x10, 0x00, 0x00, 0x00, 0x0c, 0x00, 0x08, 0x00, 0x07, 0x00,
  0x0c, 0x00, 0x00, 0x00, 0x00, 0x00, 0x00, 0x01, 0x01, 0x00, 0x00, 0x00,
  0x01, 0x00, 0x00, 0x00, 0x01, 0x00, 0x00, 0x00, 0x09, 0x00, 0x00, 0x00,
  0x03, 0x00, 0x00, 0x00, 0x08, 0x00, 0x00, 0x00, 0x07, 0x00, 0x00, 0x00,
  0x06, 0x00, 0x00, 0x00, 0x00, 0x00, 0x0a, 0x00, 0x0c, 0x00, 0x00, 0x00,
  0x08, 0x00, 0x04, 0x00, 0x0a, 0x00, 0x00, 0x00, 0x08, 0x00, 0x00, 0x00,
  0x0c, 0x00, 0x00, 0x00, 0x01, 0x00, 0x00, 0x00, 0x08, 0x00, 0x00, 0x00,
  0x01, 0x00, 0x00, 0x00, 0x00, 0x00, 0x00, 0x00, 0x01, 0x00, 0x00, 0x00,
  0x0f, 0x00, 0x00, 0x00, 0x01, 0x00, 0x00, 0x00, 0x00, 0x00, 0x00, 0x00,
  0x10, 0x00, 0x00, 0x00, 0x20, 0x09, 0x00, 0x00, 0xc8, 0x08, 0x00, 0x00,
  0x34, 0x08, 0x00, 0x00, 0xc4, 0x07, 0x00, 0x00, 0x10, 0x07, 0x00, 0x00,
  0x54, 0x06, 0x00, 0x00, 0xa0, 0x05, 0x00, 0x00, 0xdc, 0x04, 0x00, 0x00,
  0x58, 0x04, 0x00, 0x00, 0x64, 0x03, 0x00, 0x00, 0xc8, 0x02, 0x00, 0x00,
  0x44, 0x02, 0x00, 0x00, 0x88, 0x01, 0x00, 0x00, 0xe4, 0x00, 0x00, 0x00,
  0x60, 0x00, 0x00, 0x00, 0x04, 0x00, 0x00, 0x00, 0x36, 0xf7, 0xff, 0xff,
  0x00, 0x00, 0x00, 0x01, 0x14, 0x00, 0x00, 0x00, 0x1c, 0x00, 0x00, 0x00,
  0x1c, 0x00, 0x00, 0x00, 0x10, 0x00, 0x00, 0x00, 0x34, 0x00, 0x00, 0x00,
  0x02, 0x00, 0x00, 0x00, 0xff, 0xff, 0xff, 0xff, 0x02, 0x00, 0x00, 0x00,
  0x18, 0xf7, 0xff, 0xff, 0x1b, 0x00, 0x00, 0x00, 0x53, 0x74, 0x61, 0x74,
  0x65, 0x66, 0x75, 0x6c, 0x50, 0x61, 0x72, 0x74, 0x69, 0x74, 0x69, 0x6f,
  0x6e, 0x65, 0x64, 0x43, 0x61, 0x6c, 0x6c, 0x5f, 0x31, 0x3a, 0x30, 0x00,
  0x02, 0x00, 0x00, 0x00, 0x01, 0x00, 0x00, 0x00, 0x02, 0x00, 0x00, 0x00,
  0x36, 0xfc, 0xff, 0xff, 0x00, 0x00, 0x00, 0x01, 0x18, 0x00, 0x00, 0x00,
  0x20, 0x00, 0x00, 0x00, 0x40, 0x00, 0x00, 0x00, 0x0f, 0x00, 0x00, 0x00,
  0x00, 0x00, 0x00, 0x09, 0x58, 0x00, 0x00, 0x00, 0x02, 0x00, 0x00, 0x00,
  0xff, 0xff, 0xff, 0xff, 0x02, 0x00, 0x00, 0x00, 0x6c, 0xf8, 0xff, 0xff,
  0x08, 0x00, 0x00, 0x00, 0x14, 0x00, 0x00, 0x00, 0x01, 0x00, 0x00, 0x00,
  0x80, 0xff, 0xff, 0xff, 0xff, 0xff, 0xff, 0xff, 0x00, 0x00, 0x00, 0x00,
  0x01, 0x00, 0x00, 0x00, 0x00, 0x00, 0x80, 0x3b, 0x1c, 0x00, 0x00, 0x00,
  0x53, 0x74, 0x61, 0x74, 0x65, 0x66, 0x75, 0x6c, 0x50, 0x61, 0x72, 0x74,
  0x69, 0x74, 0x69, 0x6f, 0x6e, 0x65, 0x64, 0x43, 0x61, 0x6c, 0x6c, 0x5f,
  0x31, 0x3a, 0x30, 0x31, 0x00, 0x00, 0x00, 0x00, 0x02, 0x00, 0x00, 0x00,
  0x01, 0x00, 0x00, 0x00, 0x02, 0x00, 0x00, 0x00, 0xb6, 0xfc, 0xff, 0xff,
  0x00, 0x00, 0x00, 0x01, 0x18, 0x00, 0x00, 0x00, 0x20, 0x00, 0x00, 0x00,
  0x40, 0x00, 0x00, 0x00, 0x0e, 0x00, 0x00, 0x00, 0x00, 0x00, 0x00, 0x09,
  0x78, 0x00, 0x00, 0x00, 0x02, 0x00, 0x00, 0x00, 0xff, 0xff, 0xff, 0xff,
  0x02, 0x00, 0x00, 0x00, 0xec, 0xf8, 0xff, 0xff, 0x08, 0x00, 0x00, 0x00,
  0x14, 0x00, 0x00, 0x00, 0x01, 0x00, 0x00, 0x00, 0x98, 0xff, 0xff, 0xff,
  0xff, 0xff, 0xff, 0xff, 0x00, 0x00, 0x00, 0x00, 0x01, 0x00, 0x00, 0x00,
  0x3d, 0x7f, 0xfe, 0x3c, 0x3c, 0x00, 0x00, 0x00, 0x73, 0x65, 0x71, 0x75,
  0x65, 0x6e, 0x74, 0x69, 0x61, 0x6c, 0x5f, 0x31, 0x5f, 0x31, 0x2f, 0x64,
  0x65, 0x6e, 0x73, 0x65, 0x5f, 0x33, 0x5f, 0x31, 0x2f, 0x4d, 0x61, 0x74,
  0x4d, 0x75, 0x6c, 0x3b, 0x73, 0x65, 0x71, 0x75, 0x65, 0x6e, 0x74, 0x69,
  0x61, 0x6c, 0x5f, 0x31, 0x5f, 0x31, 0x2f, 0x64, 0x65, 0x6e, 0x73, 0x65,
  0x5f, 0x33, 0x5f, 0x31, 0x2f, 0x41, 0x64, 0x64, 0x00, 0x00, 0x00, 0x00,
  0x02, 0x00, 0x00, 0x00, 0x01, 0x00, 0x00, 0x00, 0x02, 0x00, 0x00, 0x00,
  0x56, 0xfd, 0xff, 0xff, 0x00, 0x00, 0x00, 0x01, 0x18, 0x00, 0x00, 0x00,
  0x20, 0x00, 0x00, 0x00, 0x3c, 0x00, 0x00, 0x00, 0x0d, 0x00, 0x00, 0x00,
  0x00, 0x00, 0x00, 0x09, 0x90, 0x00, 0x00, 0x00, 0x02, 0x00, 0x00, 0x00,
  0xff, 0xff, 0xff, 0xff, 0x08, 0x00, 0x00, 0x00, 0x8c, 0xf9, 0xff, 0xff,
  0x08, 0x00, 0x00, 0x00, 0x10, 0x00, 0x00, 0x00, 0x01, 0x00, 0x00, 0x00,
  0x80, 0xff, 0xff, 0xff, 0xff, 0xff, 0xff, 0xff, 0x01, 0x00, 0x00, 0x00,
  0x8b, 0xe2, 0xfb, 0x3c, 0x5a, 0x00, 0x00, 0x00, 0x73, 0x65, 0x71, 0x75,
  0x65, 0x6e, 0x74, 0x69, 0x61, 0x6c, 0x5f, 0x31, 0x5f, 0x31, 0x2f, 0x64,
  0x65, 0x6e, 0x73, 0x65, 0x5f, 0x32, 0x5f, 0x31, 0x2f, 0x4d, 0x61, 0x74,
  0x4d, 0x75, 0x6c, 0x3b, 0x73, 0x65, 0x71, 0x75, 0x65, 0x6e, 0x74, 0x69,
  0x61, 0x6c, 0x5f, 0x31, 0x5f, 0x31, 0x2f, 0x64, 0x65, 0x6e, 0x73, 0x65,
  0x5f, 0x32, 0x5f, 0x31, 0x2f, 0x52, 0x65, 0x6c, 0x75, 0x3b, 0x73, 0x65,
  0x71, 0x75, 0x65, 0x6e, 0x74, 0x69, 0x61, 0x6c, 0x5f, 0x31, 0x5f, 0x31,
  0x2f, 0x64, 0x65, 0x6e, 0x73, 0x65, 0x5f, 0x32, 0x5f, 0x31, 0x2f, 0x41,
  0x64, 0x64, 0x00, 0x00, 0x02, 0x00, 0x00, 0x00, 0x01, 0x00, 0x00, 0x00,
  0x08, 0x00, 0x00, 0x00, 0x0e, 0xfe, 0xff, 0xff, 0x00, 0x00, 0x00, 0x01,
  0x18, 0x00, 0x00, 0x00, 0x20, 0x00, 0x00, 0x00, 0x3c, 0x00, 0x00, 0x00,
  0x0c, 0x00, 0x00, 0x00, 0x00, 0x00, 0x00, 0x09, 0x58, 0x00, 0x00, 0x00,
  0x02, 0x00, 0x00, 0x00, 0xff, 0xff, 0xff, 0xff, 0xa0, 0x01, 0x00, 0x00,
  0x44, 0xfa, 0xff, 0xff, 0x08, 0x00, 0x00, 0x00, 0x10, 0x00, 0x00, 0x00,
  0x01, 0x00, 0x00, 0x00, 0x80, 0xff, 0xff, 0xff, 0xff, 0xff, 0xff, 0xff,
  0x01, 0x00, 0x00, 0x00, 0xbe, 0x2e, 0x6d, 0x3b, 0x22, 0x00, 0x00, 0x00,
  0x73, 0x65, 0x71, 0x75, 0x65, 0x6e, 0x74, 0x69, 0x61, 0x6c, 0x5f, 0x31,
  0x5f, 0x31, 0x2f, 0x66, 0x6c, 0x61, 0x74, 0x74, 0x65, 0x6e, 0x5f, 0x31,
  0x5f, 0x31, 0x2f, 0x52, 0x65, 0x73, 0x68, 0x61, 0x70, 0x65, 0x00, 0x00,
  0x02, 0x00, 0x00, 0x00, 0x01, 0x00, 0x00, 0x00, 0xa0, 0x01, 0x00, 0x00,
  0x8e, 0xfe, 0xff, 0xff, 0x00, 0x00, 0x00, 0x01, 0x18, 0x00, 0x00, 0x00,
  0x28, 0x00, 0x00, 0x00, 0x44, 0x00, 0x00, 0x00, 0x0b, 0x00, 0x00, 0x00,
  0x00, 0x00, 0x00, 0x09, 0x68, 0x00, 0x00, 0x00, 0x04, 0x00, 0x00, 0x00,
  0xff, 0xff, 0xff, 0xff, 0x34, 0x00, 0x00, 0x00, 0x01, 0x00, 0x00, 0x00,
  0x08, 0x00, 0x00, 0x00, 0xcc, 0xfa, 0xff, 0xff, 0x08, 0x00, 0x00, 0x00,
  0x10, 0x00, 0x00, 0x00, 0x01, 0x00, 0x00, 0x00, 0x80, 0xff, 0xff, 0xff,
  0xff, 0xff, 0xff, 0xff, 0x01, 0x00, 0x00, 0x00, 0xbe, 0x2e, 0x6d, 0x3b,
  0x2a, 0x00, 0x00, 0x00, 0x73, 0x65, 0x71, 0x75, 0x65, 0x6e, 0x74, 0x69,
  0x61, 0x6c, 0x5f, 0x31, 0x5f, 0x31, 0x2f, 0x6d, 0x61, 0x78, 0x5f, 0x70,
  0x6f, 0x6f, 0x6c, 0x69, 0x6e, 0x67, 0x32, 0x64, 0x5f, 0x31, 0x5f, 0x31,
  0x2f, 0x4d, 0x61, 0x78, 0x50, 0x6f, 0x6f, 0x6c, 0x32, 0x64, 0x00, 0x00,
  0x04, 0x00, 0x00, 0x00, 0x01, 0x00, 0x00, 0x00, 0x34, 0x00, 0x00, 0x00,
  0x01, 0x00, 0x00, 0x00, 0x08, 0x00, 0x00, 0x00, 0x26, 0xff, 0xff, 0xff,
  0x00, 0x00, 0x00, 0x01, 0x18, 0x00, 0x00, 0x00, 0x28, 0x00, 0x00, 0x00,
  0x48, 0x00, 0x00, 0x00, 0x0a, 0x00, 0x00, 0x00, 0x00, 0x00, 0x00, 0x09,
  0xa8, 0x00, 0x00, 0x00, 0x04, 0x00, 0x00, 0x00, 0xff, 0xff, 0xff, 0xff,
  0x68, 0x00, 0x00, 0x00, 0x06, 0x00, 0x00, 0x00, 0x08, 0x00, 0x00, 0x00,
  0x64, 0xfb, 0xff, 0xff, 0x08, 0x00, 0x00, 0x00, 0x14, 0x00, 0x00, 0x00,
  0x01, 0x00, 0x00, 0x00, 0x80, 0xff, 0xff, 0xff, 0xff, 0xff, 0xff, 0xff,
  0x00, 0x00, 0x00, 0x00, 0x01, 0x00, 0x00, 0x00, 0xbe, 0x2e, 0x6d, 0x3b,
  0x64, 0x00, 0x00, 0x00, 0x73, 0x65, 0x71, 0x75, 0x65, 0x6e, 0x74, 0x69,
  0x61, 0x6c, 0x5f, 0x31, 0x5f, 0x31, 0x2f, 0x63, 0x6f, 0x6e, 0x76, 0x32,
  0x64, 0x5f, 0x31, 0x5f, 0x31, 0x2f, 0x52, 0x65, 0x6c, 0x75, 0x3b, 0x73,
  0x65, 0x71, 0x75, 0x65, 0x6e, 0x74, 0x69, 0x61, 0x6c, 0x5f, 0x31, 0x5f,
  0x31, 0x2f, 0x63, 0x6f, 0x6e, 0x76, 0x32, 0x64, 0x5f, 0x31, 0x5f, 0x31,
  0x2f, 0x61, 0x64, 0x64, 0x3b, 0x73, 0x65, 0x71, 0x75, 0x65, 0x6e, 0x74,
  0x69, 0x61, 0x6c, 0x5f, 0x31, 0x5f, 0x31, 0x2f, 0x63, 0x6f, 0x6e, 0x76,
  0x32, 0x64, 0x5f, 0x31, 0x5f, 0x31, 0x2f, 0x63, 0x6f, 0x6e, 0x76, 0x6f,
  0x6c, 0x75, 0x74, 0x69, 0x6f, 0x6e, 0x3b, 0x31, 0x00, 0x00, 0x00, 0x00,
  0x04, 0x00, 0x00, 0x00, 0x01, 0x00, 0x00, 0x00, 0x68, 0x00, 0x00, 0x00,
  0x06, 0x00, 0x00, 0x00, 0x08, 0x00, 0x00, 0x00, 0x00, 0x00, 0x16, 0x00,
  0x20, 0x00, 0x1c, 0x00, 0x1b, 0x00, 0x14, 0x00, 0x10, 0x00, 0x0c, 0x00,
  0x00, 0x00, 0x00, 0x00, 0x08, 0x00, 0x07, 0x00, 0x16, 0x00, 0x00, 0x00,
  0x00, 0x00, 0x00, 0x01, 0x18, 0x00, 0x00, 0x00, 0x28, 0x00, 0x00, 0x00,
  0x48, 0x00, 0x00, 0x00, 0x09, 0x00, 0x00, 0x00, 0x00, 0x00, 0x00, 0x09,
  0x50, 0x00, 0x00, 0x00, 0x04, 0x00, 0x00, 0x00, 0xff, 0xff, 0xff, 0xff,
  0x68, 0x00, 0x00, 0x00, 0x06, 0x00, 0x00, 0x00, 0x01, 0x00, 0x00, 0x00,
  0x54, 0xfc, 0xff, 0xff, 0x08, 0x00, 0x00, 0x00, 0x14, 0x00, 0x00, 0x00,
  0x01, 0x00, 0x00, 0x00, 0x80, 0xff, 0xff, 0xff, 0xff, 0xff, 0xff, 0xff,
  0x00, 0x00, 0x00, 0x00, 0x01, 0x00, 0x00, 0x00, 0x81, 0x80, 0x80, 0x3b,
  0x0c, 0x00, 0x00, 0x00, 0x74, 0x66, 0x6c, 0x2e, 0x71, 0x75, 0x61, 0x6e,
  0x74, 0x69, 0x7a, 0x65, 0x00, 0x00, 0x00, 0x00, 0x04, 0x00, 0x00, 0x00,
  0x01, 0x00, 0x00, 0x00, 0x68, 0x00, 0x00, 0x00, 0x06, 0x00, 0x00, 0x00,
  0x01, 0x00, 0x00, 0x00, 0x42, 0xfc, 0xff, 0xff, 0x00, 0x00, 0x00, 0x01,
  0x14, 0x00, 0x00, 0x00, 0x88, 0x00, 0x00, 0x00, 0x08, 0x00, 0x00, 0x00,
  0x00, 0x00, 0x00, 0x09, 0x94, 0x00, 0x00, 0x00, 0xbc, 0xfc, 0xff, 0xff,
  0x08, 0x00, 0x00, 0x00, 0x4c, 0x00, 0x00, 0x00, 0x08, 0x00, 0x00, 0x00,
  0x00, 0x00, 0x00, 0x00, 0x00, 0x00, 0x00, 0x00, 0x00, 0x00, 0x00, 0x00,
  0x00, 0x00, 0x00, 0x00, 0x00, 0x00, 0x00, 0x00, 0x00, 0x00, 0x00, 0x00,
  0x00, 0x00, 0x00, 0x00, 0x00, 0x00, 0x00, 0x00, 0x00, 0x00, 0x00, 0x00,
  0x00, 0x00, 0x00, 0x00, 0x00, 0x00, 0x00, 0x00, 0x00, 0x00, 0x00, 0x00,
  0x00, 0x00, 0x00, 0x00, 0x00, 0x00, 0x00, 0x00, 0x00, 0x00, 0x00, 0x00,
  0x00, 0x00, 0x00, 0x00, 0x00, 0x00, 0x00, 0x00, 0x08, 0x00, 0x00, 0x00,
  0x02, 0xa9, 0xb1, 0x3a, 0xb4, 0x0f, 0x8e, 0x3a, 0xaa, 0xc6, 0x37, 0x3a,
  0x75, 0x47, 0x7c, 0x3a, 0x03, 0x7a, 0xdd, 0x3a, 0xad, 0x87, 0x9a, 0x3a,
  0xe2, 0x00, 0xda, 0x3a, 0xce, 0x1b, 0xab, 0x3a, 0x12, 0x00, 0x00, 0x00,
  0x74, 0x66, 0x6c, 0x2e, 0x70, 0x73, 0x65, 0x75, 0x64, 0x6f, 0x5f, 0x71,
  0x63, 0x6f, 0x6e, 0x73, 0x74, 0x35, 0x00, 0x00, 0x04, 0x00, 0x00, 0x00,
  0x08, 0x00, 0x00, 0x00, 0x1e, 0x00, 0x00, 0x00, 0x03, 0x00, 0x00, 0x00,
  0x01, 0x00, 0x00, 0x00, 0x02, 0xfd, 0xff, 0xff, 0x00, 0x00, 0x00, 0x01,
  0x14, 0x00, 0x00, 0x00, 0x84, 0x00, 0x00, 0x00, 0x07, 0x00, 0x00, 0x00,
  0x00, 0x00, 0x00, 0x02, 0x90, 0x00, 0x00, 0x00, 0x7c, 0xfd, 0xff, 0xff,
  0x08, 0x00, 0x00, 0x00, 0x48, 0x00, 0x00, 0x00, 0x08, 0x00, 0x00, 0x00,
  0x00, 0x00, 0x00, 0x00, 0x00, 0x00, 0x00, 0x00, 0x00, 0x00, 0x00, 0x00,
  0x00, 0x00, 0x00, 0x00, 0x00, 0x00, 0x00, 0x00, 0x00, 0x00, 0x00, 0x00,
  0x00, 0x00, 0x00, 0x00, 0x00, 0x00, 0x00, 0x00, 0x00, 0x00, 0x00, 0x00,
  0x00, 0x00, 0x00, 0x00, 0x00, 0x00, 0x00, 0x00, 0x00, 0x00, 0x00, 0x00,
  0x00, 0x00, 0x00, 0x00, 0x00, 0x00, 0x00, 0x00, 0x00, 0x00, 0x00, 0x00,
  0x00, 0x00, 0x00, 0x00, 0x08, 0x00, 0x00, 0x00, 0x5e, 0x5b, 0xb2, 0x36,
  0x53, 0x9e, 0x8e, 0x36, 0x2a, 0x7f, 0x38, 0x36, 0xbb, 0x44, 0x7d, 0x36,
  0x5c, 0x58, 0xde, 0x36, 0xd0, 0x22, 0x9b, 0x36, 0xbf, 0xdb, 0xda, 0x36,
  0x96, 0xc7, 0xab, 0x36, 0x12, 0x00, 0x00, 0x00, 0x74, 0x66, 0x6c, 0x2e,
  0x70, 0x73, 0x65, 0x75, 0x64, 0x6f, 0x5f, 0x71, 0x63, 0x6f, 0x6e, 0x73,
  0x74, 0x34, 0x00, 0x00, 0x01, 0x00, 0x00, 0x00, 0x08, 0x00, 0x00, 0x00,
  0xb2, 0xfd, 0xff, 0xff, 0x00, 0x00, 0x00, 0x01, 0x14, 0x00, 0x00, 0x00,
  0x88, 0x00, 0x00, 0x00, 0x06, 0x00, 0x00, 0x00, 0x00, 0x00, 0x00, 0x09,
  0x94, 0x00, 0x00, 0x00, 0x2c, 0xfe, 0xff, 0xff, 0x08, 0x00, 0x00, 0x00,
  0x4c, 0x00, 0x00, 0x00, 0x08, 0x00, 0x00, 0x00, 0x00, 0x00, 0x00, 0x00,
  0x00, 0x00, 0x00, 0x00, 0x00, 0x00, 0x00, 0x00, 0x00, 0x00, 0x00, 0x00,
  0x00, 0x00, 0x00, 0x00, 0x00, 0x00, 0x00, 0x00, 0x00, 0x00, 0x00, 0x00,
  0x00, 0x00, 0x00, 0x00, 0x00, 0x00, 0x00, 0x00, 0x00, 0x00, 0x00, 0x00,
  0x00, 0x00, 0x00, 0x00, 0x00, 0x00, 0x00, 0x00, 0x00, 0x00, 0x00, 0x00,
  0x00, 0x00, 0x00, 0x00, 0x00, 0x00, 0x00, 0x00, 0x00, 0x00, 0x00, 0x00,
  0x00, 0x00, 0x00, 0x00, 0x08, 0x00, 0x00, 0x00, 0x98, 0x9e, 0x82, 0x3a,
  0x20, 0x82, 0xc9, 0x3a, 0xde, 0x9b, 0x96, 0x3b, 0x35, 0x88, 0x89, 0x3a,
  0x72, 0xbd, 0x83, 0x3a, 0x04, 0xd4, 0xac, 0x3b, 0x5b, 0xb3, 0xe0, 0x3b,
  0x16, 0xaf, 0x82, 0x3a, 0x12, 0x00, 0x00, 0x00, 0x74, 0x66, 0x6c, 0x2e,
  0x70, 0x73, 0x65, 0x75, 0x64, 0x6f, 0x5f, 0x71, 0x63, 0x6f, 0x6e, 0x73,
  0x74, 0x33, 0x00, 0x00, 0x02, 0x00, 0x00, 0x00, 0x08, 0x00, 0x00, 0x00,
  0xa0, 0x01, 0x00, 0x00, 0x6a, 0xfe, 0xff, 0xff, 0x00, 0x00, 0x00, 0x01,
  0x14, 0x00, 0x00, 0x00, 0x84, 0x00, 0x00, 0x00, 0x05, 0x00, 0x00, 0x00,
  0x00, 0x00, 0x00, 0x02, 0x90, 0x00, 0x00, 0x00, 0xe4, 0xfe, 0xff, 0xff,
  0x08, 0x00, 0x00, 0x00, 0x48, 0x00, 0x00, 0x00, 0x08, 0x00, 0x00, 0x00,
  0x00, 0x00, 0x00, 0x00, 0x00, 0x00, 0x00, 0x00, 0x00, 0x00, 0x00, 0x00,
  0x00, 0x00, 0x00, 0x00, 0x00, 0x00, 0x00, 0x00, 0x00, 0x00, 0x00, 0x00,
  0x00, 0x00, 0x00, 0x00, 0x00, 0x00, 0x00, 0x00, 0x00, 0x00, 0x00, 0x00,
  0x00, 0x00, 0x00, 0x00, 0x00, 0x00, 0x00, 0x00, 0x00, 0x00, 0x00, 0x00,
  0x00, 0x00, 0x00, 0x00, 0x00, 0x00, 0x00, 0x00, 0x00, 0x00, 0x00, 0x00,
  0x00, 0x00, 0x00, 0x00, 0x08, 0x00, 0x00, 0x00, 0x58, 0x09, 0x72, 0x36,
  0x43, 0xb2, 0xba, 0x36, 0xcc, 0x89, 0x8b, 0x37, 0x6b, 0xd8, 0x7e, 0x36,
  0xe1, 0x1c, 0x74, 0x36, 0xd6, 0x1f, 0xa0, 0x37, 0x12, 0x2f, 0xd0, 0x37,
  0xe8, 0x27, 0x72, 0x36, 0x12, 0x00, 0x00, 0x00, 0x74, 0x66, 0x6c, 0x2e,
  0x70, 0x73, 0x65, 0x75, 0x64, 0x6f, 0x5f, 0x71, 0x63, 0x6f, 0x6e, 0x73,
  0x74, 0x32, 0x00, 0x00, 0x01, 0x00, 0x00, 0x00, 0x08, 0x00, 0x00, 0x00,
  0x1a, 0xff, 0xff, 0xff, 0x00, 0x00, 0x00, 0x01, 0x14, 0x00, 0x00, 0x00,
  0x3c, 0x00, 0x00, 0x00, 0x04, 0x00, 0x00, 0x00, 0x00, 0x00, 0x00, 0x09,
  0x48, 0x00, 0x00, 0x00, 0x94, 0xff, 0xff, 0xff, 0x08, 0x00, 0x00, 0x00,
  0x18, 0x00, 0x00, 0x00, 0x02, 0x00, 0x00, 0x00, 0x00, 0x00, 0x00, 0x00,
  0x00, 0x00, 0x00, 0x00, 0x00, 0x00, 0x00, 0x00, 0x00, 0x00, 0x00, 0x00,
  0x02, 0x00, 0x00, 0x00, 0x34, 0x2a, 0xe2, 0x3b, 0xca, 0x19, 0x2f, 0x3c,
  0x12, 0x00, 0x00, 0x00, 0x74, 0x66, 0x6c, 0x2e, 0x70, 0x73, 0x65, 0x75,
  0x64, 0x6f, 0x5f, 0x71, 0x63, 0x6f, 0x6e, 0x73, 0x74, 0x31, 0x00, 0x00,
  0x02, 0x00, 0x00, 0x00, 0x02, 0x00, 0x00, 0x00, 0x08, 0x00, 0x00, 0x00,
  0x86, 0xff, 0xff, 0xff, 0x00, 0x00, 0x00, 0x01, 0x20, 0x00, 0x00, 0x00,
  0x4c, 0x00, 0x00, 0x00, 0x03, 0x00, 0x00, 0x00, 0x00, 0x00, 0x00, 0x02,
  0x58, 0x00, 0x00, 0x00, 0x0c, 0x00, 0x0c, 0x00, 0x00, 0x00, 0x00, 0x00,
  0x08, 0x00, 0x04, 0x00, 0x0c, 0x00, 0x00, 0x00, 0x08, 0x00, 0x00, 0x00,
  0x1c, 0x00, 0x00, 0x00, 0x02, 0x00, 0x00, 0x00, 0x00, 0x00, 0x00, 0x00,
  0x00, 0x00, 0x00, 0x00, 0x00, 0x00, 0x00, 0x00, 0x00, 0x00, 0x00, 0x00,
  0x00, 0x00, 0x00, 0x00, 0x02, 0x00, 0x00, 0x00, 0x85, 0x87, 0x5e, 0x39,
  0x3d, 0x49, 0xac, 0x39, 0x11, 0x00, 0x00, 0x00, 0x74, 0x66, 0x6c, 0x2e,
  0x70, 0x73, 0x65, 0x75, 0x64, 0x6f, 0x5f, 0x71, 0x63, 0x6f, 0x6e, 0x73,
  0x74, 0x00, 0x00, 0x00, 0x01, 0x00, 0x00, 0x00, 0x02, 0x00, 0x00, 0x00,
  0x00, 0x00, 0x16, 0x00, 0x1c, 0x00, 0x18, 0x00, 0x17, 0x00, 0x10, 0x00,
  0x0c, 0x00, 0x08, 0x00, 0x00, 0x00, 0x00, 0x00, 0x00, 0x00, 0x07, 0x00,
  0x16, 0x00, 0x00, 0x00, 0x00, 0x00, 0x00, 0x01, 0x14, 0x00, 0x00, 0x00,
  0x14, 0x00, 0x00, 0x00, 0x02, 0x00, 0x00, 0x00, 0x00, 0x00, 0x00, 0x02,
  0x1c, 0x00, 0x00, 0x00, 0x98, 0xff, 0xff, 0xff, 0x0e, 0x00, 0x00, 0x00,
  0x61, 0x72, 0x69, 0x74, 0x68, 0x2e, 0x63, 0x6f, 0x6e, 0x73, 0x74, 0x61,
  0x6e, 0x74, 0x00, 0x00, 0x01, 0x00, 0x00, 0x00, 0x02, 0x00, 0x00, 0x00,
  0x00, 0x00, 0x16, 0x00, 0x1c, 0x00, 0x18, 0x00, 0x00, 0x00, 0x14, 0x00,
  0x10, 0x00, 0x0c, 0x00, 0x00, 0x00, 0x00, 0x00, 0x08, 0x00, 0x07, 0x00,
  0x16, 0x00, 0x00, 0x00, 0x00, 0x00, 0x00, 0x01, 0x14, 0x00, 0x00, 0x00,
  0x28, 0x00, 0x00, 0x00, 0x28, 0x00, 0x00, 0x00, 0x01, 0x00, 0x00, 0x00,
  0x48, 0x00, 0x00, 0x00, 0x04, 0x00, 0x00, 0x00, 0xff, 0xff, 0xff, 0xff,
  0x68, 0x00, 0x00, 0x00, 0x06, 0x00, 0x00, 0x00, 0x01, 0x00, 0x00, 0x00,
  0x04, 0x00, 0x04, 0x00, 0x04, 0x00, 0x00, 0x00, 0x21, 0x00, 0x00, 0x00,
  0x73, 0x65, 0x72, 0x76, 0x69, 0x6e, 0x67, 0x5f, 0x64, 0x65, 0x66, 0x61,
  0x75, 0x6c, 0x74, 0x5f, 0x6b, 0x65, 0x72, 0x61, 0x73, 0x5f, 0x74, 0x65,
  0x6e, 0x73, 0x6f, 0x72, 0x5f, 0x33, 0x36, 0x3a, 0x30, 0x00, 0x00, 0x00,
  0x04, 0x00, 0x00, 0x00, 0x01, 0x00, 0x00, 0x00, 0x68, 0x00, 0x00, 0x00,
  0x06, 0x00, 0x00, 0x00, 0x01, 0x00, 0x00, 0x00, 0x07, 0x00, 0x00, 0x00,
  0x90, 0x00, 0x00, 0x00, 0x70, 0x00, 0x00, 0x00, 0x50, 0x00, 0x00, 0x00,
  0x40, 0x00, 0x00, 0x00, 0x2c, 0x00, 0x00, 0x00, 0x18, 0x00, 0x00, 0x00,
  0x04, 0x00, 0x00, 0x00, 0xb4, 0xff, 0xff, 0xff, 0x06, 0x00, 0x00, 0x00,
  0x02, 0x00, 0x00, 0x00, 0x00, 0x00, 0x00, 0x06, 0xc4, 0xff, 0xff, 0xff,
  0x19, 0x00, 0x00, 0x00, 0x02, 0x00, 0x00, 0x00, 0x00, 0x00, 0x00, 0x19,
  0xd4, 0xff, 0xff, 0xff, 0x09, 0x00, 0x00, 0x00, 0x04, 0x00, 0x00, 0x00,
  0x00, 0x00, 0x00, 0x09, 0xc8, 0xff, 0xff, 0xff, 0x16, 0x00, 0x00, 0x00,
  0x00, 0x00, 0x00, 0x16, 0xf0, 0xff, 0xff, 0xff, 0x11, 0x00, 0x00, 0x00,
  0x02, 0x00, 0x00, 0x00, 0x00, 0x00, 0x00, 0x11, 0x0c, 0x00, 0x10, 0x00,
  0x0f, 0x00, 0x00, 0x00, 0x08, 0x00, 0x04, 0x00, 0x0c, 0x00, 0x00, 0x00,
  0x03, 0x00, 0x00, 0x00, 0x03, 0x00, 0x00, 0x00, 0x00, 0x00, 0x00, 0x03,
  0x0c, 0x00, 0x0c, 0x00, 0x0b, 0x00, 0x00, 0x00, 0x00, 0x00, 0x04, 0x00,
  0x0c, 0x00, 0x00, 0x00, 0x72, 0x00, 0x00, 0x00, 0x00, 0x00, 0x00, 0x72
};
