const unsigned char model[] = {
  0x1c, 0x00, 0x00, 0x00, 0x54, 0x46, 0x4c, 0x33, 0x14, 0x00, 0x20, 0x00,
  0x1c, 0x00, 0x18, 0x00, 0x14, 0x00, 0x10, 0x00, 0x0c, 0x00, 0x00, 0x00,
  0x08, 0x00, 0x04, 0x00, 0x14, 0x00, 0x00, 0x00, 0x1c, 0x00, 0x00, 0x00,
  0x90, 0x00, 0x00, 0x00, 0x10, 0x01, 0x00, 0x00, 0xd0, 0x10, 0x00, 0x00,
  0xe0, 0x10, 0x00, 0x00, 0xbc, 0x1c, 0x00, 0x00, 0x03, 0x00, 0x00, 0x00,
  0x01, 0x00, 0x00, 0x00, 0x04, 0x00, 0x00, 0x00, 0x06, 0xee, 0xff, 0xff,
  0x0c, 0x00, 0x00, 0x00, 0x1c, 0x00, 0x00, 0x00, 0x3c, 0x00, 0x00, 0x00,
  0x0f, 0x00, 0x00, 0x00, 0x73, 0x65, 0x72, 0x76, 0x69, 0x6e, 0x67, 0x5f,
  0x64, 0x65, 0x66, 0x61, 0x75, 0x6c, 0x74, 0x00, 0x01, 0x00, 0x00, 0x00,
  0x04, 0x00, 0x00, 0x00, 0x64, 0xff, 0xff, 0xff, 0x0f, 0x00, 0x00, 0x00,
  0x04, 0x00, 0x00, 0x00, 0x08, 0x00, 0x00, 0x00, 0x6f, 0x75, 0x74, 0x70,
  0x75, 0x74, 0x5f, 0x30, 0x00, 0x00, 0x00, 0x00, 0x01, 0x00, 0x00, 0x00,
  0x04, 0x00, 0x00, 0x00, 0xea, 0xee, 0xff, 0xff, 0x04, 0x00, 0x00, 0x00,
  0x10, 0x00, 0x00, 0x00, 0x6b, 0x65, 0x72, 0x61, 0x73, 0x5f, 0x74, 0x65,
  0x6e, 0x73, 0x6f, 0x72, 0x5f, 0x31, 0x35, 0x36, 0x00, 0x00, 0x00, 0x00,
  0x03, 0x00, 0x00, 0x00, 0x5c, 0x00, 0x00, 0x00, 0x2c, 0x00, 0x00, 0x00,
  0x04, 0x00, 0x00, 0x00, 0xb8, 0xff, 0xff, 0xff, 0x13, 0x00, 0x00, 0x00,
  0x04, 0x00, 0x00, 0x00, 0x13, 0x00, 0x00, 0x00, 0x43, 0x4f, 0x4e, 0x56,
  0x45, 0x52, 0x53, 0x49, 0x4f, 0x4e, 0x5f, 0x4d, 0x45, 0x54, 0x41, 0x44,
  0x41, 0x54, 0x41, 0x00, 0xdc, 0xff, 0xff, 0xff, 0x12, 0x00, 0x00, 0x00,
  0x04, 0x00, 0x00, 0x00, 0x13, 0x00, 0x00, 0x00, 0x6d, 0x69, 0x6e, 0x5f,
  0x72, 0x75, 0x6e, 0x74, 0x69, 0x6d, 0x65, 0x5f, 0x76, 0x65, 0x72, 0x73,
  0x69, 0x6f, 0x6e, 0x00, 0x08, 0x00, 0x0c, 0x00, 0x08, 0x00, 0x04, 0x00,
  0x08, 0x00, 0x00, 0x00, 0x11, 0x00, 0x00, 0x00, 0x04, 0x00, 0x00, 0x00,
  0x13, 0x00, 0x00, 0x00, 0x6d, 0x69, 0x6e, 0x5f, 0x72, 0x75, 0x6e, 0x74,
  0x69, 0x6d, 0x65, 0x5f, 0x76, 0x65, 0x72, 0x73, 0x69, 0x6f, 0x6e, 0x00,
  0x14, 0x00, 0x00, 0x00, 0xbc, 0x0f, 0x00, 0x00, 0xb4, 0x0f, 0x00, 0x00,
  0x9c, 0x0f, 0x00, 0x00, 0x84, 0x0f, 0x00, 0x00, 0x64, 0x0f, 0x00, 0x00,
  0x34, 0x0f, 0x00, 0x00, 0x24, 0x02, 0x00, 0x00, 0xf4, 0x01, 0x00, 0x00,
  0xf4, 0x00, 0x00, 0x00, 0xec, 0x00, 0x00, 0x00, 0xe4, 0x00, 0x00, 0x00,
  0xdc, 0x00, 0x00, 0x00, 0xd4, 0x00, 0x00, 0x00, 0xcc, 0x00, 0x00, 0x00,
  0xc4, 0x00, 0x00, 0x00, 0xbc, 0x00, 0x00, 0x00, 0xb4, 0x00, 0x00, 0x00,
  0x94, 0x00, 0x00, 0x00, 0x74, 0x00, 0x00, 0x00, 0x04, 0x00, 0x00, 0x00,
  0xe2, 0xef, 0xff, 0xff, 0x04, 0x00, 0x00, 0x00, 0x60, 0x00, 0x00, 0x00,
  0x0c, 0x00, 0x00, 0x00, 0x08, 0x00, 0x0e, 0x00, 0x08, 0x00, 0x04, 0x00,
  0x08, 0x00, 0x00, 0x00, 0x10, 0x00, 0x00, 0x00, 0x28, 0x00, 0x00, 0x00,
  0x00, 0x00, 0x06, 0x00, 0x08, 0x00, 0x04, 0x00, 0x06, 0x00, 0x00, 0x00,
  0x04, 0x00, 0x00, 0x00, 0x01, 0x00, 0x00, 0x00, 0xeb, 0x03, 0x00, 0x00,
  0x0c, 0x00, 0x18, 0x00, 0x14, 0x00, 0x10, 0x00, 0x0c, 0x00, 0x04, 0x00,
  0x0c, 0x00, 0x00, 0x00, 0x81, 0x13, 0xf8, 0xfc, 0x7a, 0xe1, 0x56, 0x17,
  0x02, 0x00, 0x00, 0x00, 0x02, 0x00, 0x00, 0x00, 0x04, 0x00, 0x00, 0x00,
  0x06, 0x00, 0x00, 0x00, 0x32, 0x2e, 0x31, 0x37, 0x2e, 0x30, 0x00, 0x00,
  0x4e, 0xf0, 0xff, 0xff, 0x04, 0x00, 0x00, 0x00, 0x10, 0x00, 0x00, 0x00,
  0x00, 0x00, 0x00, 0x00, 0x00, 0x00, 0x00, 0x00, 0x00, 0x00, 0x00, 0x00,
  0x00, 0x00, 0x00, 0x00, 0x6a, 0xf0, 0xff, 0xff, 0x04, 0x00, 0x00, 0x00,
  0x10, 0x00, 0x00, 0x00, 0x31, 0x2e, 0x31, 0x34, 0x2e, 0x30, 0x00, 0x00,
  0x00, 0x00, 0x00, 0x00, 0x00, 0x00, 0x00, 0x00, 0x84, 0xe5, 0xff, 0xff,
  0x88, 0xe5, 0xff, 0xff, 0x8c, 0xe5, 0xff, 0xff, 0x90, 0xe5, 0xff, 0xff,
  0x94, 0xe5, 0xff, 0xff, 0x98, 0xe5, 0xff, 0xff, 0x9c, 0xe5, 0xff, 0xff,
  0xa0, 0xe5, 0xff, 0xff, 0xa6, 0xf0, 0xff, 0xff, 0x04, 0x00, 0x00, 0x00,
  0xf0, 0x00, 0x00, 0x00, 0x7f, 0x45, 0x9e, 0xd5, 0x24, 0x43, 0xb2, 0xc7,
  0x11, 0xb9, 0x55, 0x15, 0xd0, 0xd6, 0xb4, 0x4b, 0x20, 0x43, 0xd7, 0xa1,
  0x20, 0x62, 0x8e, 0xc8, 0x26, 0xec, 0x22, 0xc3, 0x65, 0xf3, 0xa3, 0xcb,
  0xf3, 0x00, 0x9f, 0xbd, 0xd8, 0xe1, 0x17, 0xfd, 0x50, 0x0b, 0x3c, 0xd2,
  0x81, 0x18, 0x28, 0x09, 0x3a, 0xea, 0xd8, 0x10, 0xf2, 0x30, 0xd6, 0x58,
  0x52, 0x1a, 0x2b, 0x51, 0xe7, 0xe3, 0x5c, 0x64, 0xde, 0x3a, 0x13, 0xea,
  0x4f, 0x17, 0xc7, 0x7a, 0xdf, 0xa4, 0x31, 0x02, 0x23, 0x3e, 0x1c, 0xf8,
  0x21, 0x22, 0x2d, 0x5f, 0x63, 0xda, 0x49, 0xe1, 0x22, 0x7f, 0x30, 0xd3,
  0x01, 0x18, 0xcb, 0xce, 0x46, 0xc3, 0x29, 0x50, 0xa2, 0x95, 0x13, 0xd7,
  0x47, 0x7f, 0x8f, 0xc2, 0x04, 0x9e, 0xbd, 0x1f, 0x95, 0xd5, 0x45, 0xdb,
  0xf4, 0x54, 0x9a, 0xcb, 0xeb, 0xc7, 0x44, 0xe4, 0x09, 0xb1, 0x5b, 0xbc,
  0x9b, 0x0e, 0xcf, 0x54, 0x66, 0x34, 0x8d, 0x7a, 0x81, 0xf6, 0x53, 0xaa,
  0x07, 0x4f, 0x92, 0x1d, 0x67, 0xc2, 0x78, 0x4b, 0x8c, 0xa5, 0x03, 0xcd,
  0x47, 0xc2, 0xcc, 0xd8, 0xe5, 0x7c, 0x0a, 0x28, 0x4f, 0xaa, 0x09, 0x5e,
  0x01, 0x43, 0xdf, 0xe4, 0x26, 0xa5, 0x1f, 0x4e, 0x83, 0x35, 0xe1, 0xd2,
  0x0a, 0x81, 0x56, 0xe2, 0xaf, 0x46, 0x3c, 0xc1, 0x2f, 0x14, 0xbc, 0x17,
  0x00, 0xe7, 0x23, 0xe3, 0x44, 0xe5, 0x11, 0x41, 0x08, 0x81, 0x52, 0xee,
  0xc5, 0x1d, 0xbe, 0x17, 0x0e, 0xbd, 0x28, 0xec, 0xf1, 0x39, 0xff, 0xee,
  0x4f, 0xbe, 0x5e, 0x2b, 0x12, 0x7f, 0xe5, 0x24, 0x36, 0xd2, 0x46, 0x0e,
  0x83, 0x09, 0x9b, 0x18, 0x61, 0xc3, 0xf5, 0xf7, 0xa5, 0x5a, 0xbc, 0xb9,
  0x01, 0xac, 0x2a, 0xe5, 0xa2, 0xf1, 0xff, 0xff, 0x04, 0x00, 0x00, 0x00,
  0x20, 0x00, 0x00, 0x00, 0x94, 0x01, 0x00, 0x00, 0x28, 0x11, 0x00, 0x00,
  0xec, 0xd5, 0xff, 0xff, 0x74, 0xff, 0xff, 0xff, 0x63, 0xf6, 0xff, 0xff,
  0x61, 0x07, 0x00, 0x00, 0xdf, 0x04, 0x00, 0x00, 0xdb, 0x0d, 0x00, 0x00,
  0xce, 0xf1, 0xff, 0xff, 0x04, 0x00, 0x00, 0x00, 0x00, 0x0d, 0x00, 0x00,
  0xe2, 0x2a, 0x13, 0x1c, 0x16, 0xfe, 0x17, 0x16, 0x18, 0xfe, 0xf4, 0x14,
  0xe4, 0xef, 0x03, 0xf3, 0xec, 0x1d, 0x0e, 0x08, 0xdf, 0xfe, 0x06, 0xd2,
  0x15, 0x27, 0x14, 0x05, 0xff, 0xee, 0x15, 0xda, 0x12, 0x10, 0xf5, 0x2e,
  0x08, 0x16, 0xf1, 0xba, 0xe4, 0x21, 0x21, 0xfe, 0xe9, 0x0f, 0xfe, 0xcb,
  0xfd, 0x03, 0x17, 0x1f, 0xfc, 0xe0, 0xeb, 0xe5, 0xcc, 0x1b, 0x1b, 0x1a,
  0x06, 0xde, 0xf5, 0xd2, 0xe9, 0x09, 0x01, 0x1f, 0xf5, 0x04, 0xf8, 0xcb,
  0xc2, 0x06, 0x2e, 0x15, 0xf2, 0xe4, 0xdf, 0xa4, 0xeb, 0xe9, 0x22, 0x10,
  0xf0, 0x06, 0xca, 0x9b, 0xb9, 0xef, 0x1e, 0x43, 0xf8, 0xec, 0xb2, 0xb9,
  0xb1, 0xeb, 0x21, 0x1a, 0xe7, 0x08, 0xd1, 0x89, 0x9c, 0xf4, 0x2a, 0x42,
  0xfe, 0xd1, 0xb1, 0xb8, 0xa0, 0x0d, 0x0a, 0x2a, 0xdf, 0xd4, 0xc7, 0x81,
  0xd5, 0xe0, 0x01, 0x3b, 0x01, 0x06, 0xda, 0x8d, 0xd2, 0x05, 0xef, 0x23,
  0x03, 0xcf, 0xc1, 0x8d, 0xca, 0x17, 0xf5, 0x24, 0xff, 0xe5, 0xcc, 0xa9,
  0x9e, 0x04, 0x30, 0x38, 0xda, 0xf7, 0xe2, 0x9e, 0xc7, 0xee, 0xf8, 0x55,
  0x1d, 0xfe, 0xd9, 0x98, 0xb3, 0xf0, 0x03, 0x31, 0x01, 0xe2, 0xb1, 0xa3,
  0xb4, 0x17, 0x0f, 0x3a, 0xff, 0xc9, 0xbe, 0xa6, 0xca, 0xf9, 0x1d, 0x45,
  0x18, 0xc6, 0xcd, 0xb2, 0xcd, 0xf5, 0x14, 0x24, 0xe4, 0xdb, 0xe4, 0x9e,
  0xdd, 0xec, 0x29, 0x36, 0xff, 0xf1, 0xbf, 0xc7, 0xa8, 0x18, 0x0f, 0x39,
  0xfb, 0xc2, 0xbb, 0x90, 0xd9, 0x0f, 0x09, 0x5c, 0x24, 0xc5, 0xac, 0x9f,
  0xaf, 0x19, 0x2f, 0x5e, 0x22, 0xc2, 0xb6, 0xbd, 0xd4, 0xde, 0x2b, 0x24,
  0x19, 0xca, 0xbb, 0x9e, 0xab, 0xee, 0x15, 0x43, 0xf0, 0xee, 0xd9, 0x9e,
  0xd1, 0x14, 0x25, 0x27, 0x0b, 0xc3, 0xb5, 0x97, 0xcb, 0x09, 0x05, 0x33,
  0xe7, 0xc8, 0xcb, 0x91, 0x96, 0xdf, 0xfe, 0x1e, 0x09, 0xe5, 0xb3, 0xbe,
  0xa1, 0xf7, 0x12, 0x1d, 0x23, 0xd0, 0xc3, 0xad, 0xa0, 0xe8, 0x31, 0x3d,
  0x11, 0xf3, 0xdf, 0x9a, 0xd2, 0xd9, 0xfc, 0x36, 0x08, 0x04, 0xa1, 0xb0,
  0xba, 0xdd, 0x28, 0x3f, 0x21, 0xdb, 0xbf, 0xb9, 0xc4, 0x16, 0x32, 0x57,
  0xed, 0x0d, 0xc6, 0x81, 0xde, 0x0a, 0x0d, 0x2b, 0x2e, 0xf9, 0xf1, 0xba,
  0xc5, 0x20, 0x24, 0x5a, 0xee, 0xfd, 0xf2, 0xba, 0xe8, 0x12, 0x2e, 0x3b,
  0x1b, 0xed, 0x02, 0xc3, 0xf5, 0x0c, 0x0a, 0x5a, 0x00, 0x19, 0xf0, 0xc0,
  0xf6, 0x21, 0x08, 0x54, 0x04, 0xf7, 0xfa, 0xb6, 0xd3, 0x03, 0xf4, 0x34,
  0x03, 0xef, 0xf9, 0xd5, 0xf7, 0x0b, 0xfe, 0x6a, 0xf1, 0x00, 0xe2, 0xcc,
  0xf1, 0xe6, 0x02, 0x4f, 0x22, 0xf1, 0x15, 0x11, 0x0d, 0x1f, 0x1a, 0x4d,
  0x09, 0xee, 0x07, 0xfc, 0x21, 0x11, 0x01, 0x68, 0x2f, 0xfa, 0x20, 0xf9,
  0xe7, 0xe9, 0x06, 0x33, 0x28, 0xf2, 0xf8, 0x1c, 0xf6, 0xe1, 0x06, 0x29,
  0x22, 0x06, 0x12, 0x21, 0x17, 0xe7, 0x25, 0x0d, 0x21, 0x11, 0x34, 0x26,
  0xff, 0xf9, 0xf9, 0x0c, 0xd5, 0x20, 0x02, 0x23, 0x53, 0xe9, 0x09, 0xd9,
  0xfc, 0x1f, 0x00, 0x06, 0x14, 0x19, 0xff, 0xe8, 0x1d, 0xf8, 0x29, 0xe8,
  0x11, 0xfd, 0xfd, 0xeb, 0x0e, 0x05, 0x23, 0xfc, 0x31, 0x14, 0xfb, 0x02,
  0x09, 0x33, 0x1e, 0x28, 0x3a, 0xf4, 0xf2, 0xe0, 0x28, 0x3f, 0x3f, 0x1b,
  0x53, 0x07, 0xe6, 0x05, 0x23, 0x2a, 0x37, 0x3a, 0x41, 0xfd, 0x0c, 0xdb,
  0x1a, 0x54, 0x24, 0x25, 0x5c, 0x14, 0x00, 0xf0, 0x13, 0x38, 0x39, 0x40,
  0x40, 0x17, 0x06, 0x07, 0x1b, 0x5e, 0x50, 0x54, 0x44, 0x2f, 0x0f, 0xf6,
  0xfb, 0x4a, 0x5d, 0x39, 0x41, 0x0f, 0xeb, 0xd0, 0x19, 0x68, 0x42, 0x3b,
  0x48, 0x24, 0xe9, 0xdc, 0xf5, 0x4e, 0x55, 0x5c, 0x54, 0xff, 0x09, 0xd3,
  0x0b, 0x4f, 0x4d, 0x47, 0x69, 0x17, 0xe1, 0xcc, 0x15, 0x51, 0x4c, 0x62,
  0x48, 0x07, 0xec, 0xea, 0xfa, 0x65, 0x52, 0x63, 0x47, 0x32, 0x0a, 0xd2,
  0xfc, 0x72, 0x55, 0x60, 0x43, 0x0d, 0x0b, 0xb2, 0xf6, 0x75, 0x4a, 0x5e,
  0x68, 0x15, 0xec, 0xaf, 0xfc, 0x63, 0x5b, 0x68, 0x59, 0x20, 0xfd, 0xc6,
  0x01, 0x49, 0x45, 0x60, 0x62, 0x1b, 0xec, 0xa9, 0xf1, 0x47, 0x32, 0x66,
  0x68, 0x26, 0x03, 0xb4, 0x0f, 0x55, 0x56, 0x52, 0x6e, 0x1b, 0xf8, 0xbe,
  0xee, 0x58, 0x38, 0x3c, 0x61, 0x3a, 0xe8, 0xae, 0x19, 0x68, 0x67, 0x62,
  0x47, 0x1b, 0x08, 0xab, 0xf0, 0x6d, 0x3d, 0x5b, 0x5e, 0x12, 0xdd, 0xa6,
  0xee, 0x48, 0x42, 0x5e, 0x5f, 0x1a, 0xee, 0xb8, 0xf7, 0x68, 0x47, 0x46,
  0x71, 0x2d, 0x0a, 0xbe, 0xff, 0x6a, 0x59, 0x67, 0x57, 0x42, 0xea, 0xbc,
  0x19, 0x5a, 0x59, 0x5f, 0x51, 0x44, 0x0f, 0xbf, 0xfc, 0x50, 0x4a, 0x67,
  0x4d, 0x2d, 0xe1, 0xca, 0xf0, 0x67, 0x65, 0x65, 0x46, 0x3f, 0x09, 0xab,
  0xfc, 0x76, 0x41, 0x4c, 0x46, 0x2b, 0x03, 0xd3, 0xf1, 0x57, 0x6a, 0x68,
  0x6b, 0x34, 0xeb, 0xce, 0x12, 0x71, 0x36, 0x5f, 0x6f, 0x1f, 0xf8, 0xbd,
  0x15, 0x5c, 0x49, 0x3e, 0x7f, 0x39, 0xfe, 0xcc, 0xf5, 0x51, 0x67, 0x64,
  0x6b, 0x1a, 0xe6, 0xcf, 0xf6, 0x68, 0x71, 0x5c, 0x6a, 0x1a, 0xf6, 0xba,
  0xf0, 0x59, 0x5f, 0x50, 0x4e, 0x30, 0xf1, 0xaa, 0xfe, 0x76, 0x5f, 0x47,
  0x66, 0x17, 0xf5, 0xb9, 0x0c, 0x60, 0x57, 0x5e, 0x74, 0x26, 0xe6, 0xc0,
  0xed, 0x75, 0x4b, 0x4a, 0x60, 0x0b, 0xf3, 0xa9, 0x0f, 0x62, 0x3e, 0x33,
  0x37, 0x25, 0xe8, 0x8a, 0x02, 0x57, 0x52, 0x3b, 0x3b, 0x22, 0xe7, 0xa2,
  0x0a, 0x3d, 0x15, 0x4e, 0x4b, 0xf7, 0xf3, 0xa0, 0x07, 0x27, 0x0d, 0x2d,
  0x1f, 0xf7, 0xf2, 0x87, 0xef, 0x2e, 0x21, 0x13, 0x24, 0xf0, 0xed, 0x88,
  0xfa, 0x15, 0x0d, 0x19, 0x11, 0xf4, 0xfe, 0x98, 0x09, 0x1a, 0x11, 0x25,
  0x14, 0xf4, 0xfe, 0xa7, 0xf8, 0x1f, 0xf4, 0x16, 0xf4, 0x09, 0x02, 0xab,
  0xeb, 0x13, 0xf1, 0x09, 0xe4, 0x21, 0xf0, 0x99, 0x18, 0x0a, 0xe6, 0x09,
  0x11, 0xfa, 0xf2, 0xd1, 0x0c, 0xea, 0xfa, 0xf1, 0xf7, 0x15, 0xfd, 0x1c,
  0x15, 0xfb, 0x15, 0xee, 0xeb, 0xce, 0x10, 0x6b, 0x44, 0x40, 0x61, 0xd3,
  0x4b, 0xb2, 0xf4, 0x91, 0x64, 0x55, 0xae, 0xab, 0x0f, 0xa8, 0x9e, 0xc6,
  0x4f, 0x69, 0xbd, 0x0e, 0xdf, 0xdd, 0xe8, 0xd5, 0x48, 0x81, 0xe5, 0x67,
  0x2b, 0xa4, 0xd8, 0xc6, 0xeb, 0x3e, 0xf8, 0xb7, 0x28, 0x82, 0x65, 0xde,
  0x42, 0x82, 0x43, 0xac, 0xe2, 0x09, 0xd4, 0xd9, 0x1d, 0x6f, 0x61, 0xfb,
  0x98, 0x6f, 0x82, 0xab, 0xb0, 0x67, 0x11, 0x3e, 0x53, 0x50, 0xb6, 0xaa,
  0xa9, 0xed, 0x3d, 0xb3, 0xbd, 0xa0, 0x16, 0x99, 0xb8, 0xc5, 0xa7, 0xe3,
  0x6a, 0x62, 0xc0, 0xdb, 0x91, 0x89, 0xe0, 0x54, 0xb7, 0xfc, 0x6e, 0xff,
  0xb0, 0xf5, 0x46, 0x21, 0xf9, 0xc1, 0x19, 0x9b, 0x70, 0xfd, 0xe1, 0x8a,
  0xac, 0x40, 0x54, 0x04, 0x3b, 0x03, 0x92, 0x12, 0x39, 0x3e, 0xd7, 0xff,
  0xd4, 0xe0, 0xe2, 0x5a, 0x9e, 0x3c, 0xd8, 0x9f, 0x6c, 0xfc, 0x0f, 0x01,
  0xde, 0x8e, 0xa9, 0x2a, 0x33, 0xf3, 0x70, 0xf9, 0x82, 0x63, 0xb8, 0xa7,
  0x6e, 0x96, 0xd0, 0xfb, 0x90, 0xfe, 0x5a, 0x9a, 0xab, 0x13, 0xb8, 0xd7,
  0x29, 0xf9, 0xcc, 0x11, 0x21, 0x17, 0x59, 0xc8, 0xb0, 0xf8, 0x5e, 0x2b,
  0xfd, 0xe5, 0x34, 0x9f, 0xd2, 0xa0, 0xdf, 0x3f, 0x96, 0x07, 0x52, 0x35,
  0x84, 0x0e, 0x25, 0xb3, 0x2e, 0xe8, 0xc9, 0x49, 0x4e, 0xe7, 0xda, 0x33,
  0xd0, 0xaf, 0x22, 0x25, 0xda, 0x31, 0x0e, 0x05, 0x57, 0x24, 0xcb, 0xb7,
  0x88, 0xa2, 0xdc, 0xe9, 0xe6, 0xb5, 0x0b, 0xb0, 0x05, 0xfe, 0x43, 0xec,
  0x28, 0xd9, 0x10, 0x6e, 0x6f, 0xf8, 0x26, 0x34, 0xbb, 0x55, 0x57, 0xd9,
  0x2d, 0x2a, 0x86, 0xdd, 0xa5, 0x85, 0xd1, 0x04, 0x3c, 0xd2, 0x0f, 0x8b,
  0x53, 0x25, 0x23, 0xa6, 0x11, 0x02, 0x1a, 0x84, 0x8d, 0x27, 0xfb, 0xf0,
  0x67, 0xc8, 0xbe, 0x4f, 0xb7, 0xcd, 0x01, 0xa9, 0x23, 0x00, 0xb9, 0x12,
  0x10, 0xe1, 0x8e, 0x91, 0xb1, 0x92, 0xe8, 0x52, 0xa7, 0xf3, 0xf9, 0x42,
  0x6c, 0x02, 0x48, 0xc6, 0x15, 0x59, 0x00, 0x5f, 0xc6, 0x00, 0xb4, 0x98,
  0x43, 0xe0, 0xf7, 0x89, 0xf1, 0x2d, 0xe0, 0x5a, 0xee, 0xbe, 0x3a, 0xaa,
  0x68, 0x64, 0xca, 0xc5, 0xfa, 0xa8, 0x6d, 0x48, 0xea, 0x19, 0xf5, 0x16,
  0x17, 0xea, 0x84, 0x41, 0x62, 0xe4, 0xca, 0x63, 0xec, 0x93, 0x3b, 0x24,
  0x07, 0x85, 0x14, 0x91, 0xf2, 0x35, 0xef, 0xa1, 0xef, 0x3b, 0x29, 0x48,
  0x1f, 0x5e, 0xf6, 0x30, 0xdb, 0xf5, 0xa7, 0x3a, 0x85, 0x08, 0xcb, 0x64,
  0x35, 0x9f, 0xd9, 0xd4, 0x13, 0xb4, 0x19, 0xa4, 0x2d, 0xfa, 0x20, 0x92,
  0xdb, 0x6a, 0x81, 0x6f, 0x66, 0xa6, 0x04, 0xe3, 0xe3, 0x96, 0x94, 0x6e,
  0x09, 0x18, 0x4c, 0xe1, 0x19, 0xcc, 0xd6, 0xbd, 0x3d, 0xec, 0xc4, 0xa0,
  0x18, 0x07, 0x01, 0x44, 0xe0, 0x70, 0x06, 0xbb, 0x16, 0x0d, 0xb4, 0x6a,
  0xc7, 0x2a, 0x36, 0x70, 0xdb, 0xa7, 0xa6, 0x35, 0x6a, 0x6c, 0x96, 0x1a,
  0xc5, 0x8a, 0xb6, 0x4e, 0xb4, 0x94, 0x84, 0x5d, 0xfa, 0xa4, 0x00, 0x08,
  0x11, 0xe4, 0xaa, 0x9a, 0xd8, 0xe0, 0xb9, 0xe2, 0x98, 0x37, 0x86, 0x93,
  0xc0, 0xec, 0x8f, 0xd3, 0xd2, 0x02, 0xa8, 0xe0, 0x49, 0x47, 0x5b, 0x30,
  0xf9, 0xe7, 0x92, 0x93, 0xd1, 0xfe, 0xc2, 0xdb, 0xda, 0x6a, 0x1c, 0xe7,
  0xbc, 0x5a, 0x53, 0x9a, 0x8b, 0xb0, 0x33, 0x15, 0xd0, 0x6a, 0xfc, 0x0d,
  0xfc, 0xc9, 0x87, 0x1a, 0xa1, 0xc5, 0x8d, 0x82, 0x32, 0x12, 0x88, 0xd2,
  0x36, 0xe6, 0x4f, 0x8b, 0xc2, 0x0e, 0x1c, 0x56, 0xeb, 0x67, 0x81, 0xdf,
  0x64, 0x21, 0xda, 0x63, 0x32, 0x2b, 0xb5, 0xc9, 0x09, 0x50, 0xfc, 0x3f,
  0x90, 0x5f, 0xd6, 0xce, 0x92, 0xe0, 0xd6, 0x53, 0xa4, 0x8a, 0xa6, 0x1a,
  0xda, 0x3a, 0xa1, 0x58, 0x6b, 0xa1, 0xc5, 0x5e, 0xf8, 0x27, 0xa4, 0xfd,
  0xf9, 0xc6, 0x3e, 0xe7, 0xa2, 0xab, 0x22, 0xcf, 0x64, 0x28, 0x9e, 0xa8,
  0xa2, 0x25, 0x10, 0x4c, 0xf7, 0x52, 0xb9, 0x11, 0x06, 0xca, 0xe8, 0x99,
  0x15, 0xcb, 0x31, 0x9e, 0xa5, 0xd2, 0x43, 0x1e, 0xce, 0xf0, 0x97, 0xfb,
  0x16, 0xa0, 0xcc, 0xf4, 0xaf, 0xd7, 0x8c, 0x01, 0x20, 0xa7, 0x4a, 0x1b,
  0x1f, 0x58, 0x35, 0xe5, 0xfb, 0xa0, 0xa3, 0xa5, 0x69, 0x0a, 0xdb, 0x6f,
  0xd6, 0x0d, 0xec, 0xd4, 0x3c, 0xba, 0xdd, 0xd1, 0x17, 0x91, 0x4e, 0x51,
  0xda, 0xf3, 0xa1, 0x87, 0xe0, 0xa5, 0xaf, 0x67, 0x43, 0xfa, 0x64, 0x0e,
  0x01, 0xe3, 0x45, 0x5d, 0x1e, 0xd3, 0x04, 0xcf, 0xf0, 0xec, 0xa2, 0x3c,
  0xd3, 0xa3, 0xf6, 0xaf, 0xf1, 0x56, 0x2c, 0x17, 0x53, 0xfb, 0xc9, 0x89,
  0xd3, 0xa2, 0x18, 0xbd, 0x32, 0x9c, 0xab, 0x1c, 0xed, 0x1c, 0xc3, 0xc9,
  0x86, 0x1b, 0xfd, 0xbe, 0x8d, 0x3e, 0x56, 0x1a, 0x2e, 0x6c, 0x1e, 0x62,
  0x4f, 0x36, 0xa6, 0x62, 0x20, 0xff, 0x86, 0x2e, 0x33, 0x8f, 0x2d, 0xb6,
  0x38, 0x22, 0xd6, 0x47, 0x13, 0x8e, 0x5f, 0x12, 0xd6, 0xaf, 0x05, 0xe2,
  0xd2, 0x56, 0x61, 0xcc, 0xe1, 0xc2, 0xcc, 0x83, 0xb0, 0x8a, 0x19, 0x94,
  0x1e, 0x9a, 0x55, 0xb4, 0xde, 0x18, 0x23, 0x42, 0xe4, 0x35, 0xe5, 0x35,
  0x84, 0x68, 0xe1, 0x29, 0x4c, 0xab, 0xf0, 0xe2, 0x68, 0x2b, 0x18, 0x9f,
  0xaf, 0x33, 0x17, 0x92, 0x2c, 0xee, 0x5e, 0x3b, 0x82, 0x06, 0x6c, 0x34,
  0x6f, 0x3c, 0xf3, 0x52, 0xb0, 0x90, 0xd1, 0x4e, 0x4a, 0x46, 0xf1, 0x24,
  0xd5, 0xde, 0x12, 0xca, 0x1a, 0xdf, 0x83, 0xeb, 0x17, 0x91, 0xc5, 0x31,
  0x3f, 0x32, 0xfa, 0xa6, 0xfc, 0x6b, 0x13, 0x02, 0xac, 0xa5, 0xcd, 0x0f,
  0xe7, 0x3b, 0x0f, 0x85, 0x49, 0x88, 0x97, 0x8e, 0x60, 0x69, 0x11, 0x9c,
  0x04, 0x22, 0x3a, 0xfc, 0xa3, 0xc9, 0x32, 0xe3, 0xc3, 0x17, 0x0c, 0x0e,
  0xd5, 0x0b, 0xe3, 0x24, 0x16, 0x61, 0xe1, 0x11, 0xa0, 0x0b, 0x23, 0x97,
  0xaa, 0x00, 0x16, 0x97, 0x2a, 0x50, 0x41, 0x4d, 0xfc, 0xf5, 0xae, 0x4c,
  0xf9, 0x55, 0xd4, 0x2d, 0x0e, 0xb5, 0xd0, 0x4c, 0x02, 0x22, 0xf8, 0x55,
  0x89, 0x3c, 0xb7, 0xd4, 0xa6, 0xeb, 0x4c, 0x89, 0xe9, 0x1b, 0xfd, 0xda,
  0x16, 0x21, 0x15, 0x15, 0xf3, 0xf6, 0x0a, 0xd9, 0xf9, 0xdb, 0x14, 0x24,
  0x1f, 0xe5, 0xe9, 0xe6, 0x25, 0xe1, 0x08, 0x0c, 0xfd, 0xf9, 0x1c, 0xf3,
  0x16, 0xe7, 0x06, 0x3a, 0x05, 0x05, 0xe2, 0xdd, 0x34, 0xeb, 0x0f, 0x26,
  0x27, 0x02, 0x0d, 0xd8, 0x14, 0x16, 0xf0, 0x0d, 0x35, 0x18, 0xf0, 0x08,
  0x18, 0x1e, 0x0c, 0x47, 0x2b, 0xdf, 0xee, 0x13, 0x22, 0xe9, 0x06, 0x2a,
  0x39, 0x1f, 0xf4, 0x08, 0xfc, 0x02, 0xf7, 0x5f, 0x3c, 0xf1, 0x01, 0xeb,
  0x24, 0x12, 0x35, 0x4c, 0x4a, 0xf1, 0xfd, 0xda, 0xf4, 0xed, 0x2f, 0x5d,
  0x44, 0x21, 0x08, 0xbd, 0x24, 0x2f, 0x22, 0x5e, 0x44, 0x12, 0xfe, 0xe9,
  0x0e, 0x0c, 0x1e, 0x72, 0x2e, 0xe6, 0x07, 0xf1, 0x27, 0x25, 0x4d, 0x39,
  0x32, 0x18, 0xe2, 0xfd, 0x2d, 0x0d, 0x30, 0x63, 0x4d, 0x22, 0xf5, 0xcd,
  0xf9, 0xf6, 0x32, 0x60, 0x1b, 0xf2, 0xf8, 0xc8, 0xfb, 0x0d, 0x26, 0x55,
  0x5d, 0x25, 0x0c, 0xc0, 0x1e, 0x2c, 0x52, 0x3b, 0x3a, 0x0f, 0xe2, 0xc7,
  0xf9, 0x2b, 0x51, 0x5f, 0x1b, 0x1c, 0xf3, 0xb9, 0x12, 0x31, 0x16, 0x6a,
  0x61, 0x22, 0xe6, 0xe8, 0x01, 0x30, 0x4e, 0x48, 0x37, 0x0a, 0x05, 0xb5,
  0x22, 0x12, 0x4d, 0x69, 0x5a, 0x1c, 0xf9, 0xc5, 0x04, 0x31, 0x17, 0x74,
  0x53, 0x21, 0xfd, 0xc1, 0xee, 0x34, 0x28, 0x59, 0x41, 0x28, 0xf7, 0xc5,
  0x16, 0x20, 0x1b, 0x49, 0x1c, 0x00, 0xf1, 0xe1, 0xf7, 0x37, 0x12, 0x3e,
  0x2d, 0x28, 0x0e, 0xeb, 0x00, 0xfd, 0x3a, 0x3f, 0x27, 0x08, 0xfa, 0xaf,
  0xf3, 0x09, 0x2c, 0x6b, 0x53, 0x00, 0x07, 0xc8, 0xe4, 0xfa, 0x27, 0x78,
  0x56, 0x18, 0xf5, 0xea, 0xeb, 0x30, 0x3f, 0x64, 0x3b, 0x0a, 0xed, 0xd9,
  0x1c, 0x34, 0x4e, 0x3f, 0x4b, 0x2b, 0x1a, 0xcb, 0x14, 0x03, 0x31, 0x56,
  0x25, 0x28, 0xf0, 0xd8, 0x0f, 0x0a, 0x1e, 0x65, 0x5e, 0x02, 0xff, 0xcb,
  0xf5, 0x1d, 0x4f, 0x61, 0x4a, 0xfb, 0x1d, 0xd4, 0xfc, 0x05, 0x4a, 0x7f,
  0x38, 0x0a, 0xe2, 0xb3, 0x12, 0x37, 0x2e, 0x45, 0x53, 0xfe, 0x01, 0xd8,
  0xfc, 0x25, 0x25, 0x5e, 0x38, 0x25, 0x1d, 0xb7, 0xfe, 0x07, 0x16, 0x57,
  0x34, 0x16, 0xe6, 0xc0, 0x17, 0x18, 0x40, 0x5b, 0x0a, 0x16, 0xde, 0xdb,
  0xef, 0xff, 0x02, 0x60, 0x3c, 0xfb, 0xe9, 0x9b, 0x12, 0x04, 0xf5, 0x25,
  0x22, 0xee, 0xe8, 0xb5, 0xf9, 0xf1, 0x1c, 0x16, 0x19, 0x1b, 0xe9, 0xcd,
  0xf2, 0x1d, 0x1d, 0x2a, 0xe9, 0xe3, 0x03, 0x9c, 0x20, 0x10, 0xfd, 0x05,
  0xf4, 0x1c, 0xe6, 0xa6, 0xf7, 0xea, 0xeb, 0x36, 0x17, 0x13, 0xed, 0xc5,
  0xe6, 0x08, 0xe7, 0xf9, 0x15, 0xf2, 0x18, 0xc2, 0x08, 0x19, 0xf7, 0xfa,
  0xf7, 0xf4, 0xe3, 0x9a, 0xf0, 0x14, 0xea, 0xfa, 0xff, 0x14, 0x01, 0xc1,
  0xf7, 0x15, 0x13, 0xfa, 0x02, 0xf5, 0x01, 0xa5, 0xe6, 0x19, 0x15, 0xe1,
  0xf4, 0x00, 0xf7, 0x16, 0xee, 0x13, 0xd7, 0xfe, 0x0e, 0x00, 0x17, 0x18,
  0x0b, 0x15, 0x0d, 0xe7, 0x19, 0x06, 0x27, 0x2f, 0xf4, 0x1f, 0xf8, 0x1b,
  0xf2, 0x1a, 0x15, 0x4e, 0xf6, 0xfb, 0xf7, 0x1c, 0xfb, 0x0a, 0x23, 0x01,
  0xee, 0xf6, 0xef, 0xda, 0xfe, 0x09, 0x2e, 0x26, 0xfe, 0x05, 0xe5, 0xda,
  0x02, 0xfd, 0x0e, 0x2a, 0xf6, 0xf2, 0xe3, 0xcc, 0x09, 0x03, 0x25, 0x26,
  0xfb, 0xd9, 0xee, 0xe8, 0xc3, 0x01, 0x00, 0x12, 0xf1, 0xfa, 0xf8, 0xbc,
  0xc3, 0xe3, 0x27, 0x14, 0x0f, 0x10, 0xdf, 0xa4, 0xe2, 0x1c, 0x21, 0xfe,
  0xce, 0xd1, 0xce, 0x97, 0xd2, 0x17, 0x09, 0x22, 0xe7, 0x12, 0xc3, 0x9d,
  0xbc, 0x0d, 0xf8, 0x11, 0x01, 0xd4, 0xfa, 0xb5, 0xaa, 0x09, 0xf7, 0x20,
  0x14, 0xf7, 0xf2, 0x91, 0xd2, 0xe9, 0x19, 0x21, 0x10, 0xdf, 0xec, 0xac,
  0xd2, 0xe2, 0x12, 0x24, 0xeb, 0xe2, 0xad, 0xb5, 0xad, 0x0a, 0x0e, 0x0c,
  0x04, 0xeb, 0xe0, 0x89, 0x97, 0xe2, 0x00, 0x41, 0x18, 0xd4, 0xe6, 0x8d,
  0xbc, 0xfa, 0x1e, 0x47, 0x17, 0x04, 0xdd, 0xbf, 0xd5, 0xd9, 0x17, 0x44,
  0xe2, 0xd9, 0xcb, 0x96, 0xd2, 0xfd, 0x03, 0x49, 0xfa, 0xf5, 0xbc, 0xb3,
  0xcf, 0xf8, 0xf9, 0x46, 0xe0, 0xed, 0xe6, 0xa2, 0xa7, 0x18, 0x27, 0x32,
  0xe3, 0x00, 0xb1, 0x8d, 0xb6, 0x0e, 0x1f, 0x52, 0x10, 0xd6, 0xac, 0x8b,
  0xb7, 0xee, 0x0f, 0x45, 0xe2, 0xdc, 0xd9, 0xc9, 0xc8, 0x07, 0x06, 0x49,
  0x1e, 0xcf, 0xcb, 0xc6, 0xd6, 0xe8, 0x1f, 0x28, 0x14, 0xe1, 0xd2, 0x88,
  0x9e, 0xe9, 0x27, 0x5d, 0xdf, 0xfa, 0xc2, 0x94, 0xc9, 0x0a, 0x0e, 0x3c,
  0x03, 0xe9, 0xc9, 0x8b, 0xd3, 0xe2, 0x11, 0x42, 0xfb, 0xc6, 0xd0, 0xb3,
  0xcf, 0xe2, 0xfa, 0x5b, 0x17, 0xf0, 0xcc, 0xa5, 0xc9, 0x09, 0x1f, 0x57,
  0x1d, 0xde, 0xd9, 0x9d, 0xbe, 0x0b, 0x0e, 0x53, 0x08, 0xf9, 0xcf, 0x94,
  0xa9, 0x04, 0xf2, 0x42, 0x08, 0xdd, 0xaa, 0x95, 0xbe, 0x10, 0x28, 0x40,
  0xe9, 0xf7, 0xb0, 0x81, 0xab, 0xef, 0x14, 0x2b, 0xe7, 0xdc, 0xb9, 0xac,
  0xd1, 0xef, 0x0c, 0x58, 0x11, 0xd3, 0xd9, 0xa1, 0x9e, 0xf4, 0x2d, 0x58,
  0x0f, 0xc3, 0xcf, 0xa7, 0xae, 0xf2, 0x1c, 0x26, 0x10, 0x05, 0xc8, 0xb4,
  0xb1, 0xff, 0x22, 0x5c, 0x0d, 0xdb, 0xd8, 0xb3, 0xaf, 0x1d, 0x25, 0x67,
  0xfd, 0x08, 0xde, 0xaf, 0xc3, 0x11, 0xfe, 0x38, 0xf7, 0xcf, 0xf6, 0xb5,
  0xbc, 0xea, 0x2a, 0x3f, 0xec, 0xe4, 0xf1, 0xd4, 0xed, 0xf1, 0x12, 0x6f,
  0x17, 0x0f, 0x00, 0xb2, 0xf1, 0xf4, 0xff, 0x38, 0x25, 0x21, 0xe7, 0xd9,
  0xdc, 0xfe, 0x0b, 0x41, 0x07, 0x0b, 0xd7, 0xfa, 0x18, 0xfa, 0x20, 0x69,
  0x08, 0xe7, 0x09, 0xef, 0x04, 0xef, 0xf7, 0x34, 0x1f, 0x05, 0xde, 0x04,
  0x1d, 0xf8, 0x2e, 0x36, 0x19, 0xe1, 0x14, 0x0d, 0xe9, 0xf4, 0x1e, 0x60,
  0x0b, 0xe4, 0x1e, 0xf3, 0x17, 0x20, 0xfa, 0x58, 0x2a, 0xfa, 0x00, 0x0f,
  0xea, 0x13, 0x00, 0x4e, 0xf9, 0x18, 0x13, 0x14, 0xfd, 0x0f, 0x04, 0x2f,
  0x28, 0xfb, 0x05, 0x27, 0x06, 0x1f, 0xfa, 0x16, 0xee, 0x2c, 0x07, 0x16,
  0xe7, 0xf3, 0x19, 0xe6, 0x16, 0xe3, 0x15, 0xfd, 0x27, 0xe7, 0xed, 0xff,
  0xf1, 0xf1, 0x19, 0x1a, 0x0b, 0x0e, 0x1b, 0xf1, 0xf8, 0x0b, 0x02, 0xf6,
  0xff, 0x05, 0x09, 0xe7, 0x19, 0xfa, 0x03, 0x17, 0x1e, 0x09, 0xf0, 0x0f,
  0x01, 0x04, 0xe8, 0x19, 0x33, 0x21, 0x01, 0xe5, 0x2d, 0xf9, 0x0d, 0x23,
  0x1a, 0x04, 0xfa, 0xd4, 0x15, 0xfc, 0xff, 0x42, 0x0a, 0x07, 0xf7, 0x0b,
  0x21, 0x04, 0x08, 0x3a, 0x0e, 0xee, 0xf7, 0xfb, 0x22, 0x05, 0x24, 0x44,
  0x3c, 0xf3, 0xfe, 0xbf, 0x20, 0x05, 0x13, 0x5b, 0x27, 0x13, 0xf9, 0xfd,
  0x17, 0x05, 0x20, 0x62, 0x26, 0x22, 0xe3, 0xd8, 0x05, 0x2a, 0x3a, 0x64,
  0x33, 0xf5, 0x00, 0xc9, 0x18, 0x15, 0x41, 0x6d, 0x39, 0x14, 0xee, 0xd5,
  0x21, 0xfc, 0x3e, 0x46, 0x2a, 0x22, 0x08, 0xca, 0xf3, 0x30, 0x41, 0x42,
  0x35, 0xee, 0x06, 0xc2, 0xfb, 0x2a, 0x52, 0x47, 0x55, 0x05, 0xe2, 0xca,
  0x03, 0x1a, 0x1f, 0x46, 0x35, 0x08, 0xf8, 0xe1, 0xfe, 0x3d, 0x48, 0x41,
  0x4c, 0xe8, 0x09, 0xb4, 0x06, 0x26, 0x3d, 0x7b, 0x38, 0x27, 0xe5, 0xd1,
  0x0d, 0x22, 0x49, 0x73, 0x57, 0x0b, 0xeb, 0xe1, 0x1a, 0x10, 0x40, 0x5e,
  0x25, 0xf1, 0xe2, 0xd2, 0xf4, 0x02, 0x2c, 0x5b, 0x61, 0x1b, 0x13, 0xc8,
  0x08, 0x24, 0x39, 0x68, 0x36, 0x1e, 0xf7, 0xda, 0x0c, 0x16, 0x46, 0x65,
  0x57, 0x29, 0x1a, 0xad, 0xeb, 0x3a, 0x32, 0x62, 0x56, 0x29, 0xeb, 0xc2,
  0xf7, 0x04, 0x4c, 0x59, 0x33, 0x06, 0x07, 0xdb, 0x02, 0x3a, 0x4e, 0x5f,
  0x53, 0x18, 0x03, 0xcd, 0xf1, 0x1a, 0x33, 0x56, 0x33, 0x1c, 0xe1, 0xc6,
  0xea, 0x01, 0x4b, 0x66, 0x31, 0xf1, 0x0e, 0xcc, 0x05, 0x27, 0x57, 0x57,
  0x39, 0x23, 0xf5, 0xb5, 0xfb, 0x05, 0x2c, 0x63, 0x37, 0x1b, 0xfb, 0xe3,
  0xfc, 0x1f, 0x3e, 0x55, 0x4d, 0x26, 0x0c, 0xd6, 0x21, 0x1e, 0x4c, 0x70,
  0x41, 0x19, 0xec, 0xcb, 0x00, 0x04, 0x5d, 0x6d, 0x64, 0xf3, 0xe5, 0xd3,
  0xf8, 0x0b, 0x54, 0x61, 0x5e, 0x02, 0xfd, 0xe6, 0xea, 0x1d, 0x31, 0x7f,
  0x41, 0xf9, 0xf2, 0xb0, 0x12, 0x1d, 0x2b, 0x7b, 0x2f, 0xf3, 0xeb, 0xd6,
  0x15, 0xf8, 0x1b, 0x58, 0x4e, 0x0d, 0xeb, 0xc6, 0x05, 0x1f, 0x32, 0x55,
  0x31, 0x1b, 0xff, 0xd6, 0xf2, 0x24, 0x29, 0x4f, 0x3e, 0xf0, 0xf8, 0xbb,
  0xfc, 0x24, 0x1f, 0x50, 0x1d, 0x19, 0xed, 0x97, 0x10, 0x08, 0x24, 0x33,
  0x2b, 0xff, 0xf6, 0xcb, 0x16, 0x11, 0x09, 0x45, 0x1c, 0x04, 0x0c, 0xc8,
  0xfd, 0x17, 0xfd, 0x00, 0xee, 0x0e, 0x14, 0xc7, 0xe5, 0xff, 0x00, 0x1a,
  0xfb, 0xec, 0xf1, 0xa4, 0xf5, 0x1d, 0x16, 0x0b, 0x0d, 0x0d, 0x0e, 0x96,
  0xfe, 0xfc, 0x03, 0xfd, 0xfa, 0x04, 0x1b, 0xbd, 0x1a, 0xe0, 0xf6, 0x00,
  0x0e, 0x16, 0xf0, 0xd0, 0xe5, 0xf3, 0xf6, 0xf8, 0x04, 0x0b, 0x07, 0xcd,
  0x21, 0xe7, 0xf0, 0xe5, 0xf6, 0xfe, 0xee, 0xd9, 0x16, 0x19, 0x0f, 0x07,
  0x02, 0x15, 0xe0, 0x03, 0x30, 0xf2, 0x14, 0xea, 0x5e, 0xb1, 0xbf, 0xfd,
  0x92, 0xaf, 0x23, 0x47, 0xe5, 0xba, 0xc1, 0xbc, 0x35, 0x3d, 0x5e, 0x3e,
  0x1e, 0xda, 0x92, 0x30, 0x03, 0xc9, 0xb6, 0x93, 0xe6, 0x5c, 0x06, 0xaf,
  0xc0, 0xb7, 0xc7, 0xb7, 0x31, 0xc4, 0xcb, 0x39, 0xc4, 0x41, 0xfd, 0xd5,
  0x1b, 0xfd, 0xec, 0xb0, 0xa2, 0xe3, 0xb0, 0x65, 0x6a, 0xb3, 0x90, 0x65,
  0xcc, 0x37, 0xfb, 0x4f, 0x8f, 0x09, 0x55, 0x2d, 0xbd, 0x49, 0x38, 0xa1,
  0x45, 0x35, 0xb9, 0x48, 0xa3, 0xfb, 0xa8, 0x55, 0x03, 0x41, 0x3e, 0x48,
  0x40, 0xe2, 0x5b, 0xeb, 0xe3, 0x19, 0x06, 0x0e, 0xa3, 0xa2, 0xa5, 0x24,
  0xc9, 0x83, 0x03, 0xca, 0x3a, 0x3d, 0xbf, 0x32, 0xd0, 0xcb, 0x0f, 0xc9,
  0xec, 0x31, 0xce, 0xd0, 0xf6, 0xa8, 0x0e, 0x4d, 0xb6, 0x41, 0x09, 0x2a,
  0x04, 0x12, 0x2a, 0x51, 0x97, 0xd8, 0x0e, 0x98, 0x65, 0x6d, 0x41, 0xa2,
  0x90, 0x35, 0xba, 0xa3, 0xde, 0xb8, 0x31, 0xa8, 0xf1, 0x5f, 0x6b, 0x7c,
  0x5c, 0x59, 0xac, 0xb9, 0x9d, 0xb6, 0x29, 0x77, 0xc5, 0xfe, 0x15, 0xb9,
  0xf2, 0xd8, 0x14, 0xc1, 0x11, 0xfd, 0x97, 0xce, 0x99, 0x94, 0xbb, 0xb2,
  0x60, 0xdf, 0xf6, 0x83, 0x0e, 0x85, 0x03, 0x6a, 0x23, 0x8d, 0x43, 0x9f,
  0x92, 0xc5, 0x0e, 0x95, 0xe5, 0x9b, 0x6d, 0x0d, 0x2b, 0x1c, 0xaf, 0x48,
  0x2c, 0xae, 0xcd, 0xca, 0x82, 0x3d, 0x4b, 0xcf, 0xcd, 0xa6, 0x40, 0x6b,
  0x96, 0x21, 0x95, 0x94, 0xc7, 0xc9, 0x86, 0xe7, 0xf6, 0x20, 0x91, 0x4e,
  0x1e, 0x86, 0x32, 0x26, 0x38, 0x62, 0x13, 0x63, 0x1a, 0x5e, 0xeb, 0x5a,
  0xa6, 0x50, 0x45, 0x3e, 0xf6, 0xbf, 0xf2, 0xf6, 0xf8, 0x52, 0xf4, 0x48,
  0xd9, 0xa7, 0x4d, 0x99, 0x44, 0x24, 0x9d, 0x57, 0x96, 0xee, 0xbb, 0xa2,
  0x1c, 0xc5, 0xfd, 0x06, 0x2b, 0xc8, 0x56, 0x00, 0x28, 0x23, 0xd5, 0xdf,
  0x46, 0xc2, 0x68, 0x26, 0xc6, 0xc3, 0xe2, 0x63, 0xc6, 0xb9, 0x1b, 0xac,
  0x81, 0x94, 0xae, 0x24, 0x8b, 0x28, 0xb0, 0xc8, 0x4a, 0xa7, 0x34, 0x40,
  0x97, 0x0a, 0xd1, 0xf1, 0x62, 0x56, 0x20, 0x10, 0xa4, 0x66, 0xc7, 0x1c,
  0x05, 0xb7, 0x61, 0x4e, 0x39, 0xaf, 0x06, 0x22, 0xa9, 0x3b, 0x54, 0x5f,
  0x43, 0x57, 0x99, 0x3d, 0xa4, 0x37, 0x2e, 0xd9, 0x4a, 0x2c, 0xb8, 0xca,
  0xbd, 0xe5, 0xad, 0x22, 0x0b, 0x18, 0xc6, 0x43, 0x68, 0x66, 0x1e, 0x51,
  0x8e, 0x18, 0x6c, 0x6a, 0xf4, 0xc5, 0x94, 0xcf, 0xe4, 0x97, 0x6c, 0x4b,
  0x9c, 0xda, 0x10, 0xa1, 0xfb, 0x25, 0x88, 0x55, 0xfc, 0xdd, 0x34, 0xd1,
  0xba, 0xf6, 0x48, 0xc8, 0xcf, 0x19, 0x03, 0xe9, 0x5e, 0x3a, 0xaf, 0x11,
  0x07, 0x2a, 0xf6, 0x30, 0xb3, 0xc7, 0xf6, 0x96, 0xd6, 0x04, 0xa1, 0xd0,
  0x06, 0xb4, 0x72, 0x3d, 0x5a, 0x2b, 0x61, 0x1e, 0x50, 0x4e, 0xcb, 0x0f,
  0xe8, 0x02, 0x49, 0x29, 0x51, 0x14, 0xe7, 0x25, 0x2a, 0x66, 0xed, 0x03,
  0xc3, 0x92, 0x8b, 0x9a, 0xe6, 0xe9, 0xe3, 0x5c, 0xd3, 0xd5, 0xe5, 0x0e,
  0x01, 0x09, 0x13, 0x49, 0xda, 0xfe, 0xff, 0xff, 0x04, 0x00, 0x00, 0x00,
  0x20, 0x00, 0x00, 0x00, 0x6f, 0x04, 0x00, 0x00, 0xa5, 0x05, 0x00, 0x00,
  0x46, 0xf9, 0xff, 0xff, 0x85, 0xf9, 0xff, 0xff, 0x9f, 0x06, 0x00, 0x00,
  0xd9, 0x01, 0x00, 0x00, 0x62, 0x06, 0x00, 0x00, 0x5d, 0xfa, 0xff, 0xff,
  0x06, 0xff, 0xff, 0xff, 0x04, 0x00, 0x00, 0x00, 0x10, 0x00, 0x00, 0x00,
  0x81, 0xf9, 0xff, 0x11, 0x7a, 0xd9, 0x4b, 0xf0, 0x2f, 0x81, 0x3f, 0xf7,
  0xba, 0x6e, 0xbf, 0xe1, 0x22, 0xff, 0xff, 0xff, 0x04, 0x00, 0x00, 0x00,
  0x08, 0x00, 0x00, 0x00, 0x90, 0xfd, 0xff, 0xff, 0xb9, 0x01, 0x00, 0x00,
  0x36, 0xff, 0xff, 0xff, 0x04, 0x00, 0x00, 0x00, 0x08, 0x00, 0x00, 0x00,
  0xff, 0xff, 0xff, 0xff, 0xa0, 0x01, 0x00, 0x00, 0x48, 0xf4, 0xff, 0xff,
  0x4c, 0xf4, 0xff, 0xff, 0x0f, 0x00, 0x00, 0x00, 0x4d, 0x4c, 0x49, 0x52,
  0x20, 0x43, 0x6f, 0x6e, 0x76, 0x65, 0x72, 0x74, 0x65, 0x64, 0x2e, 0x00,
  0x01, 0x00, 0x00, 0x00, 0x14, 0x00, 0x00, 0x00, 0x00, 0x00, 0x0e, 0x00,
  0x18, 0x00, 0x14, 0x00, 0x10, 0x00, 0x0c, 0x00, 0x08, 0x00, 0x04, 0x00,
  0x0e, 0x00, 0x00, 0x00, 0x14, 0x00, 0x00, 0x00, 0x1c, 0x00, 0x00, 0x00,
  0x0c, 0x02, 0x00, 0x00, 0x10, 0x02, 0x00, 0x00, 0x14, 0x02, 0x00, 0x00,
  0x04, 0x00, 0x00, 0x00, 0x6d, 0x61, 0x69, 0x6e, 0x00, 0x00, 0x00, 0x00,
  0x08, 0x00, 0x00, 0x00, 0xd4, 0x01, 0x00, 0x00, 0x78, 0x01, 0x00, 0x00,
  0x14, 0x01, 0x00, 0x00, 0xec, 0x00, 0x00, 0x00, 0x9c, 0x00, 0x00, 0x00,
  0x64, 0x00, 0x00, 0x00, 0x28, 0x00, 0x00, 0x00, 0x04, 0x00, 0x00, 0x00,
  0x32, 0xff, 0xff, 0xff, 0x0c, 0x00, 0x00, 0x00, 0x10, 0x00, 0x00, 0x00,
  0x06, 0x00, 0x00, 0x00, 0x01, 0x00, 0x00, 0x00, 0x0f, 0x00, 0x00, 0x00,
  0x01, 0x00, 0x00, 0x00, 0x0e, 0x00, 0x00, 0x00, 0xd2, 0xfe, 0xff, 0xff,
  0x1c, 0x00, 0x00, 0x00, 0x00, 0x00, 0x00, 0x09, 0x1c, 0x00, 0x00, 0x00,
  0x20, 0x00, 0x00, 0x00, 0x05, 0x00, 0x00, 0x00, 0x00, 0x00, 0x06, 0x00,
  0x08, 0x00, 0x04, 0x00, 0x06, 0x00, 0x00, 0x00, 0x00, 0x00, 0x80, 0x3f,
  0x01, 0x00, 0x00, 0x00, 0x0e, 0x00, 0x00, 0x00, 0x01, 0x00, 0x00, 0x00,
  0x0d, 0x00, 0x00, 0x00, 0x0a, 0xff, 0xff, 0xff, 0x14, 0x00, 0x00, 0x00,
  0x00, 0x00, 0x00, 0x08, 0x10, 0x00, 0x00, 0x00, 0x14, 0x00, 0x00, 0x00,
  0x04, 0x00, 0x00, 0x00, 0x34, 0xf5, 0xff, 0xff, 0x01, 0x00, 0x00, 0x00,
  0x0d, 0x00, 0x00, 0x00, 0x03, 0x00, 0x00, 0x00, 0x0c, 0x00, 0x00, 0x00,
  0x03, 0x00, 0x00, 0x00, 0x02, 0x00, 0x00, 0x00, 0x3e, 0xff, 0xff, 0xff,
  0x1c, 0x00, 0x00, 0x00, 0x00, 0x00, 0x00, 0x08, 0x1c, 0x00, 0x00, 0x00,
  0x20, 0x00, 0x00, 0x00, 0x04, 0x00, 0x00, 0x00, 0x00, 0x00, 0x06, 0x00,
  0x08, 0x00, 0x07, 0x00, 0x06, 0x00, 0x00, 0x00, 0x00, 0x00, 0x00, 0x01,
  0x01, 0x00, 0x00, 0x00, 0x0c, 0x00, 0x00, 0x00, 0x03, 0x00, 0x00, 0x00,
  0x0b, 0x00, 0x00, 0x00, 0x05, 0x00, 0x00, 0x00, 0x04, 0x00, 0x00, 0x00,
  0x00, 0x00, 0x0a, 0x00, 0x10, 0x00, 0x0c, 0x00, 0x08, 0x00, 0x04, 0x00,
  0x0a, 0x00, 0x00, 0x00, 0x0c, 0x00, 0x00, 0x00, 0x10, 0x00, 0x00, 0x00,
  0x03, 0x00, 0x00, 0x00, 0x01, 0x00, 0x00, 0x00, 0x0b, 0x00, 0x00, 0x00,
  0x02, 0x00, 0x00, 0x00, 0x0a, 0x00, 0x00, 0x00, 0x01, 0x00, 0x00, 0x00,
  0xae, 0xff, 0xff, 0xff, 0x24, 0x00, 0x00, 0x00, 0x00, 0x00, 0x00, 0x05,
  0x34, 0x00, 0x00, 0x00, 0x38, 0x00, 0x00, 0x00, 0x02, 0x00, 0x00, 0x00,
  0x00, 0x00, 0x0e, 0x00, 0x18, 0x00, 0x17, 0x00, 0x10, 0x00, 0x0c, 0x00,
  0x08, 0x00, 0x04, 0x00, 0x0e, 0x00, 0x00, 0x00, 0x02, 0x00, 0x00, 0x00,
  0x06, 0x00, 0x00, 0x00, 0x02, 0x00, 0x00, 0x00, 0x06, 0x00, 0x00, 0x00,
  0x00, 0x00, 0x00, 0x01, 0x01, 0x00, 0x00, 0x00, 0x0a, 0x00, 0x00, 0x00,
  0x01, 0x00, 0x00, 0x00, 0x09, 0x00, 0x00, 0x00, 0x00, 0x00, 0x0e, 0x00,
  0x18, 0x00, 0x14, 0x00, 0x10, 0x00, 0x0c, 0x00, 0x0b, 0x00, 0x04, 0x00,
  0x0e, 0x00, 0x00, 0x00, 0x20, 0x00, 0x00, 0x00, 0x00, 0x00, 0x00, 0x01,
  0x28, 0x00, 0x00, 0x00, 0x2c, 0x00, 0x00, 0x00, 0x01, 0x00, 0x00, 0x00,
  0x0c, 0x00, 0x10, 0x00, 0x00, 0x00, 0x0c, 0x00, 0x08, 0x00, 0x07, 0x00,
  0x0c, 0x00, 0x00, 0x00, 0x00, 0x00, 0x00, 0x01, 0x01, 0x00, 0x00, 0x00,
  0x01, 0x00, 0x00, 0x00, 0x01, 0x00, 0x00, 0x00, 0x09, 0x00, 0x00, 0x00,
  0x03, 0x00, 0x00, 0x00, 0x08, 0x00, 0x00, 0x00, 0x07, 0x00, 0x00, 0x00,
  0x06, 0x00, 0x00, 0x00, 0x00, 0x00, 0x0a, 0x00, 0x0c, 0x00, 0x00, 0x00,
  0x08, 0x00, 0x04, 0x00, 0x0a, 0x00, 0x00, 0x00, 0x08, 0x00, 0x00, 0x00,
  0x0c, 0x00, 0x00, 0x00, 0x01, 0x00, 0x00, 0x00, 0x08, 0x00, 0x00, 0x00,
  0x01, 0x00, 0x00, 0x00, 0x00, 0x00, 0x00, 0x00, 0x01, 0x00, 0x00, 0x00,
  0x0f, 0x00, 0x00, 0x00, 0x01, 0x00, 0x00, 0x00, 0x00, 0x00, 0x00, 0x00,
  0x10, 0x00, 0x00, 0x00, 0x28, 0x09, 0x00, 0x00, 0xd0, 0x08, 0x00, 0x00,
  0x3c, 0x08, 0x00, 0x00, 0xcc, 0x07, 0x00, 0x00, 0x18, 0x07, 0x00, 0x00,
  0x5c, 0x06, 0x00, 0x00, 0xa8, 0x05, 0x00, 0x00, 0xe4, 0x04, 0x00, 0x00,
  0x60, 0x04, 0x00, 0x00, 0x6c, 0x03, 0x00, 0x00, 0xd0, 0x02, 0x00, 0x00,
  0x4c, 0x02, 0x00, 0x00, 0x88, 0x01, 0x00, 0x00, 0xe4, 0x00, 0x00, 0x00,
  0x60, 0x00, 0x00, 0x00, 0x04, 0x00, 0x00, 0x00, 0x2e, 0xf7, 0xff, 0xff,
  0x00, 0x00, 0x00, 0x01, 0x14, 0x00, 0x00, 0x00, 0x1c, 0x00, 0x00, 0x00,
  0x1c, 0x00, 0x00, 0x00, 0x10, 0x00, 0x00, 0x00, 0x34, 0x00, 0x00, 0x00,
  0x02, 0x00, 0x00, 0x00, 0xff, 0xff, 0xff, 0xff, 0x02, 0x00, 0x00, 0x00,
  0x10, 0xf7, 0xff, 0xff, 0x1b, 0x00, 0x00, 0x00, 0x53, 0x74, 0x61, 0x74,
  0x65, 0x66, 0x75, 0x6c, 0x50, 0x61, 0x72, 0x74, 0x69, 0x74, 0x69, 0x6f,
  0x6e, 0x65, 0x64, 0x43, 0x61, 0x6c, 0x6c, 0x5f, 0x31, 0x3a, 0x30, 0x00,
  0x02, 0x00, 0x00, 0x00, 0x01, 0x00, 0x00, 0x00, 0x02, 0x00, 0x00, 0x00,
  0x2e, 0xfc, 0xff, 0xff, 0x00, 0x00, 0x00, 0x01, 0x18, 0x00, 0x00, 0x00,
  0x20, 0x00, 0x00, 0x00, 0x40, 0x00, 0x00, 0x00, 0x0f, 0x00, 0x00, 0x00,
  0x00, 0x00, 0x00, 0x09, 0x58, 0x00, 0x00, 0x00, 0x02, 0x00, 0x00, 0x00,
  0xff, 0xff, 0xff, 0xff, 0x02, 0x00, 0x00, 0x00, 0x64, 0xf8, 0xff, 0xff,
  0x08, 0x00, 0x00, 0x00, 0x14, 0x00, 0x00, 0x00, 0x01, 0x00, 0x00, 0x00,
  0x80, 0xff, 0xff, 0xff, 0xff, 0xff, 0xff, 0xff, 0x00, 0x00, 0x00, 0x00,
  0x01, 0x00, 0x00, 0x00, 0x00, 0x00, 0x80, 0x3b, 0x1c, 0x00, 0x00, 0x00,
  0x53, 0x74, 0x61, 0x74, 0x65, 0x66, 0x75, 0x6c, 0x50, 0x61, 0x72, 0x74,
  0x69, 0x74, 0x69, 0x6f, 0x6e, 0x65, 0x64, 0x43, 0x61, 0x6c, 0x6c, 0x5f,
  0x31, 0x3a, 0x30, 0x31, 0x00, 0x00, 0x00, 0x00, 0x02, 0x00, 0x00, 0x00,
  0x01, 0x00, 0x00, 0x00, 0x02, 0x00, 0x00, 0x00, 0xae, 0xfc, 0xff, 0xff,
  0x00, 0x00, 0x00, 0x01, 0x18, 0x00, 0x00, 0x00, 0x20, 0x00, 0x00, 0x00,
  0x40, 0x00, 0x00, 0x00, 0x0e, 0x00, 0x00, 0x00, 0x00, 0x00, 0x00, 0x09,
  0x78, 0x00, 0x00, 0x00, 0x02, 0x00, 0x00, 0x00, 0xff, 0xff, 0xff, 0xff,
  0x02, 0x00, 0x00, 0x00, 0xe4, 0xf8, 0xff, 0xff, 0x08, 0x00, 0x00, 0x00,
  0x14, 0x00, 0x00, 0x00, 0x01, 0x00, 0x00, 0x00, 0x13, 0x00, 0x00, 0x00,
  0x00, 0x00, 0x00, 0x00, 0x00, 0x00, 0x00, 0x00, 0x01, 0x00, 0x00, 0x00,
  0x07, 0x0c, 0x98, 0x3d, 0x3e, 0x00, 0x00, 0x00, 0x73, 0x65, 0x71, 0x75,
  0x65, 0x6e, 0x74, 0x69, 0x61, 0x6c, 0x5f, 0x39, 0x5f, 0x31, 0x2f, 0x64,
  0x65, 0x6e, 0x73, 0x65, 0x5f, 0x31, 0x39, 0x5f, 0x31, 0x2f, 0x4d, 0x61,
  0x74, 0x4d, 0x75, 0x6c, 0x3b, 0x73, 0x65, 0x71, 0x75, 0x65, 0x6e, 0x74,
  0x69, 0x61, 0x6c, 0x5f, 0x39, 0x5f, 0x31, 0x2f, 0x64, 0x65, 0x6e, 0x73,
  0x65, 0x5f, 0x31, 0x39, 0x5f, 0x31, 0x2f, 0x41, 0x64, 0x64, 0x00, 0x00,
  0x02, 0x00, 0x00, 0x00, 0x01, 0x00, 0x00, 0x00, 0x02, 0x00, 0x00, 0x00,
  0x4e, 0xfd, 0xff, 0xff, 0x00, 0x00, 0x00, 0x01, 0x18, 0x00, 0x00, 0x00,
  0x20, 0x00, 0x00, 0x00, 0x40, 0x00, 0x00, 0x00, 0x0d, 0x00, 0x00, 0x00,
  0x00, 0x00, 0x00, 0x09, 0x98, 0x00, 0x00, 0x00, 0x02, 0x00, 0x00, 0x00,
  0xff, 0xff, 0xff, 0xff, 0x08, 0x00, 0x00, 0x00, 0x84, 0xf9, 0xff, 0xff,
  0x08, 0x00, 0x00, 0x00, 0x14, 0x00, 0x00, 0x00, 0x01, 0x00, 0x00, 0x00,
  0x80, 0xff, 0xff, 0xff, 0xff, 0xff, 0xff, 0xff, 0x00, 0x00, 0x00, 0x00,
  0x01, 0x00, 0x00, 0x00, 0x1a, 0x68, 0xa9, 0x3c, 0x5d, 0x00, 0x00, 0x00,
  0x73, 0x65, 0x71, 0x75, 0x65, 0x6e, 0x74, 0x69, 0x61, 0x6c, 0x5f, 0x39,
  0x5f, 0x31, 0x2f, 0x64, 0x65, 0x6e, 0x73, 0x65, 0x5f, 0x31, 0x38, 0x5f,
  0x31, 0x2f, 0x4d, 0x61, 0x74, 0x4d, 0x75, 0x6c, 0x3b, 0x73, 0x65, 0x71,
  0x75, 0x65, 0x6e, 0x74, 0x69, 0x61, 0x6c, 0x5f, 0x39, 0x5f, 0x31, 0x2f,
  0x64, 0x65, 0x6e, 0x73, 0x65, 0x5f, 0x31, 0x38, 0x5f, 0x31, 0x2f, 0x52,
  0x65, 0x6c, 0x75, 0x3b, 0x73, 0x65, 0x71, 0x75, 0x65, 0x6e, 0x74, 0x69,
  0x61, 0x6c, 0x5f, 0x39, 0x5f, 0x31, 0x2f, 0x64, 0x65, 0x6e, 0x73, 0x65,
  0x5f, 0x31, 0x38, 0x5f, 0x31, 0x2f, 0x41, 0x64, 0x64, 0x00, 0x00, 0x00,
  0x02, 0x00, 0x00, 0x00, 0x01, 0x00, 0x00, 0x00, 0x08, 0x00, 0x00, 0x00,
  0x0e, 0xfe, 0xff, 0xff, 0x00, 0x00, 0x00, 0x01, 0x18, 0x00, 0x00, 0x00,
  0x20, 0x00, 0x00, 0x00, 0x3c, 0x00, 0x00, 0x00, 0x0c, 0x00, 0x00, 0x00,
  0x00, 0x00, 0x00, 0x09, 0x58, 0x00, 0x00, 0x00, 0x02, 0x00, 0x00, 0x00,
  0xff, 0xff, 0xff, 0xff, 0xa0, 0x01, 0x00, 0x00, 0x44, 0xfa, 0xff, 0xff,
  0x08, 0x00, 0x00, 0x00, 0x10, 0x00, 0x00, 0x00, 0x01, 0x00, 0x00, 0x00,
  0x80, 0xff, 0xff, 0xff, 0xff, 0xff, 0xff, 0xff, 0x01, 0x00, 0x00, 0x00,
  0x04, 0xc9, 0x84, 0x3b, 0x22, 0x00, 0x00, 0x00, 0x73, 0x65, 0x71, 0x75,
  0x65, 0x6e, 0x74, 0x69, 0x61, 0x6c, 0x5f, 0x39, 0x5f, 0x31, 0x2f, 0x66,
  0x6c, 0x61, 0x74, 0x74, 0x65, 0x6e, 0x5f, 0x39, 0x5f, 0x31, 0x2f, 0x52,
  0x65, 0x73, 0x68, 0x61, 0x70, 0x65, 0x00, 0x00, 0x02, 0x00, 0x00, 0x00,
  0x01, 0x00, 0x00, 0x00, 0xa0, 0x01, 0x00, 0x00, 0x8e, 0xfe, 0xff, 0xff,
  0x00, 0x00, 0x00, 0x01, 0x18, 0x00, 0x00, 0x00, 0x28, 0x00, 0x00, 0x00,
  0x44, 0x00, 0x00, 0x00, 0x0b, 0x00, 0x00, 0x00, 0x00, 0x00, 0x00, 0x09,
  0x68, 0x00, 0x00, 0x00, 0x04, 0x00, 0x00, 0x00, 0xff, 0xff, 0xff, 0xff,
  0x34, 0x00, 0x00, 0x00, 0x01, 0x00, 0x00, 0x00, 0x08, 0x00, 0x00, 0x00,
  0xcc, 0xfa, 0xff, 0xff, 0x08, 0x00, 0x00, 0x00, 0x10, 0x00, 0x00, 0x00,
  0x01, 0x00, 0x00, 0x00, 0x80, 0xff, 0xff, 0xff, 0xff, 0xff, 0xff, 0xff,
  0x01, 0x00, 0x00, 0x00, 0x04, 0xc9, 0x84, 0x3b, 0x2a, 0x00, 0x00, 0x00,
  0x73, 0x65, 0x71, 0x75, 0x65, 0x6e, 0x74, 0x69, 0x61, 0x6c, 0x5f, 0x39,
  0x5f, 0x31, 0x2f, 0x6d, 0x61, 0x78, 0x5f, 0x70, 0x6f, 0x6f, 0x6c, 0x69,
  0x6e, 0x67, 0x32, 0x64, 0x5f, 0x39, 0x5f, 0x31, 0x2f, 0x4d, 0x61, 0x78,
  0x50, 0x6f, 0x6f, 0x6c, 0x32, 0x64, 0x00, 0x00, 0x04, 0x00, 0x00, 0x00,
  0x01, 0x00, 0x00, 0x00, 0x34, 0x00, 0x00, 0x00, 0x01, 0x00, 0x00, 0x00,
  0x08, 0x00, 0x00, 0x00, 0x26, 0xff, 0xff, 0xff, 0x00, 0x00, 0x00, 0x01,
  0x18, 0x00, 0x00, 0x00, 0x28, 0x00, 0x00, 0x00, 0x48, 0x00, 0x00, 0x00,
  0x0a, 0x00, 0x00, 0x00, 0x00, 0x00, 0x00, 0x09, 0xa8, 0x00, 0x00, 0x00,
  0x04, 0x00, 0x00, 0x00, 0xff, 0xff, 0xff, 0xff, 0x68, 0x00, 0x00, 0x00,
  0x06, 0x00, 0x00, 0x00, 0x08, 0x00, 0x00, 0x00, 0x64, 0xfb, 0xff, 0xff,
  0x08, 0x00, 0x00, 0x00, 0x14, 0x00, 0x00, 0x00, 0x01, 0x00, 0x00, 0x00,
  0x80, 0xff, 0xff, 0xff, 0xff, 0xff, 0xff, 0xff, 0x00, 0x00, 0x00, 0x00,
  0x01, 0x00, 0x00, 0x00, 0x04, 0xc9, 0x84, 0x3b, 0x64, 0x00, 0x00, 0x00,
  0x73, 0x65, 0x71, 0x75, 0x65, 0x6e, 0x74, 0x69, 0x61, 0x6c, 0x5f, 0x39,
  0x5f, 0x31, 0x2f, 0x63, 0x6f, 0x6e, 0x76, 0x32, 0x64, 0x5f, 0x39, 0x5f,
  0x31, 0x2f, 0x52, 0x65, 0x6c, 0x75, 0x3b, 0x73, 0x65, 0x71, 0x75, 0x65,
  0x6e, 0x74, 0x69, 0x61, 0x6c, 0x5f, 0x39, 0x5f, 0x31, 0x2f, 0x63, 0x6f,
  0x6e, 0x76, 0x32, 0x64, 0x5f, 0x39, 0x5f, 0x31, 0x2f, 0x61, 0x64, 0x64,
  0x3b, 0x73, 0x65, 0x71, 0x75, 0x65, 0x6e, 0x74, 0x69, 0x61, 0x6c, 0x5f,
  0x39, 0x5f, 0x31, 0x2f, 0x63, 0x6f, 0x6e, 0x76, 0x32, 0x64, 0x5f, 0x39,
  0x5f, 0x31, 0x2f, 0x63, 0x6f, 0x6e, 0x76, 0x6f, 0x6c, 0x75, 0x74, 0x69,
  0x6f, 0x6e, 0x3b, 0x31, 0x00, 0x00, 0x00, 0x00, 0x04, 0x00, 0x00, 0x00,
  0x01, 0x00, 0x00, 0x00, 0x68, 0x00, 0x00, 0x00, 0x06, 0x00, 0x00, 0x00,
  0x08, 0x00, 0x00, 0x00, 0x00, 0x00, 0x16, 0x00, 0x20, 0x00, 0x1c, 0x00,
  0x1b, 0x00, 0x14, 0x00, 0x10, 0x00, 0x0c, 0x00, 0x00, 0x00, 0x00, 0x00,
  0x08, 0x00, 0x07, 0x00, 0x16, 0x00, 0x00, 0x00, 0x00, 0x00, 0x00, 0x01,
  0x18, 0x00, 0x00, 0x00, 0x28, 0x00, 0x00, 0x00, 0x48, 0x00, 0x00, 0x00,
  0x09, 0x00, 0x00, 0x00, 0x00, 0x00, 0x00, 0x09, 0x50, 0x00, 0x00, 0x00,
  0x04, 0x00, 0x00, 0x00, 0xff, 0xff, 0xff, 0xff, 0x68, 0x00, 0x00, 0x00,
  0x06, 0x00, 0x00, 0x00, 0x01, 0x00, 0x00, 0x00, 0x54, 0xfc, 0xff, 0xff,
  0x08, 0x00, 0x00, 0x00, 0x14, 0x00, 0x00, 0x00, 0x01, 0x00, 0x00, 0x00,
  0x80, 0xff, 0xff, 0xff, 0xff, 0xff, 0xff, 0xff, 0x00, 0x00, 0x00, 0x00,
  0x01, 0x00, 0x00, 0x00, 0x81, 0x80, 0x80, 0x3b, 0x0c, 0x00, 0x00, 0x00,
  0x74, 0x66, 0x6c, 0x2e, 0x71, 0x75, 0x61, 0x6e, 0x74, 0x69, 0x7a, 0x65,
  0x00, 0x00, 0x00, 0x00, 0x04, 0x00, 0x00, 0x00, 0x01, 0x00, 0x00, 0x00,
  0x68, 0x00, 0x00, 0x00, 0x06, 0x00, 0x00, 0x00, 0x01, 0x00, 0x00, 0x00,
  0x42, 0xfc, 0xff, 0xff, 0x00, 0x00, 0x00, 0x01, 0x14, 0x00, 0x00, 0x00,
  0x88, 0x00, 0x00, 0x00, 0x08, 0x00, 0x00, 0x00, 0x00, 0x00, 0x00, 0x09,
  0x94, 0x00, 0x00, 0x00, 0xbc, 0xfc, 0xff, 0xff, 0x08, 0x00, 0x00, 0x00,
  0x4c, 0x00, 0x00, 0x00, 0x08, 0x00, 0x00, 0x00, 0x00, 0x00, 0x00, 0x00,
  0x00, 0x00, 0x00, 0x00, 0x00, 0x00, 0x00, 0x00, 0x00, 0x00, 0x00, 0x00,
  0x00, 0x00, 0x00, 0x00, 0x00, 0x00, 0x00, 0x00, 0x00, 0x00, 0x00, 0x00,
  0x00, 0x00, 0x00, 0x00, 0x00, 0x00, 0x00, 0x00, 0x00, 0x00, 0x00, 0x00,
  0x00, 0x00, 0x00, 0x00, 0x00, 0x00, 0x00, 0x00, 0x00, 0x00, 0x00, 0x00,
  0x00, 0x00, 0x00, 0x00, 0x00, 0x00, 0x00, 0x00, 0x00, 0x00, 0x00, 0x00,
  0x00, 0x00, 0x00, 0x00, 0x08, 0x00, 0x00, 0x00, 0xf5, 0xcb, 0xf7, 0x3a,
  0xb4, 0xdc, 0x02, 0x3b, 0xfe, 0xa8, 0xaa, 0x3a, 0xdc, 0xcf, 0xc8, 0x3a,
  0xd3, 0x8a, 0xaa, 0x3a, 0x35, 0x04, 0xe5, 0x3a, 0xfb, 0xf5, 0x10, 0x3b,
  0x43, 0xe2, 0xf8, 0x3a, 0x12, 0x00, 0x00, 0x00, 0x74, 0x66, 0x6c, 0x2e,
  0x70, 0x73, 0x65, 0x75, 0x64, 0x6f, 0x5f, 0x71, 0x63, 0x6f, 0x6e, 0x73,
  0x74, 0x35, 0x00, 0x00, 0x04, 0x00, 0x00, 0x00, 0x08, 0x00, 0x00, 0x00,
  0x0a, 0x00, 0x00, 0x00, 0x03, 0x00, 0x00, 0x00, 0x01, 0x00, 0x00, 0x00,
  0x02, 0xfd, 0xff, 0xff, 0x00, 0x00, 0x00, 0x01, 0x14, 0x00, 0x00, 0x00,
  0x84, 0x00, 0x00, 0x00, 0x07, 0x00, 0x00, 0x00, 0x00, 0x00, 0x00, 0x02,
  0x90, 0x00, 0x00, 0x00, 0x7c, 0xfd, 0xff, 0xff, 0x08, 0x00, 0x00, 0x00,
  0x48, 0x00, 0x00, 0x00, 0x08, 0x00, 0x00, 0x00, 0x00, 0x00, 0x00, 0x00,
  0x00, 0x00, 0x00, 0x00, 0x00, 0x00, 0x00, 0x00, 0x00, 0x00, 0x00, 0x00,
  0x00, 0x00, 0x00, 0x00, 0x00, 0x00, 0x00, 0x00, 0x00, 0x00, 0x00, 0x00,
  0x00, 0x00, 0x00, 0x00, 0x00, 0x00, 0x00, 0x00, 0x00, 0x00, 0x00, 0x00,
  0x00, 0x00, 0x00, 0x00, 0x00, 0x00, 0x00, 0x00, 0x00, 0x00, 0x00, 0x00,
  0x00, 0x00, 0x00, 0x00, 0x00, 0x00, 0x00, 0x00, 0x00, 0x00, 0x00, 0x00,
  0x08, 0x00, 0x00, 0x00, 0xbb, 0xc4, 0xf8, 0x36, 0x15, 0x60, 0x03, 0x37,
  0x53, 0x54, 0xab, 0x36, 0x76, 0x99, 0xc9, 0x36, 0x0a, 0x36, 0xab, 0x36,
  0x20, 0xea, 0xe5, 0x36, 0x83, 0x87, 0x11, 0x37, 0x20, 0xdc, 0xf9, 0x36,
  0x12, 0x00, 0x00, 0x00, 0x74, 0x66, 0x6c, 0x2e, 0x70, 0x73, 0x65, 0x75,
  0x64, 0x6f, 0x5f, 0x71, 0x63, 0x6f, 0x6e, 0x73, 0x74, 0x34, 0x00, 0x00,
  0x01, 0x00, 0x00, 0x00, 0x08, 0x00, 0x00, 0x00, 0xb2, 0xfd, 0xff, 0xff,
  0x00, 0x00, 0x00, 0x01, 0x14, 0x00, 0x00, 0x00, 0x88, 0x00, 0x00, 0x00,
  0x06, 0x00, 0x00, 0x00, 0x00, 0x00, 0x00, 0x09, 0x94, 0x00, 0x00, 0x00,
  0x2c, 0xfe, 0xff, 0xff, 0x08, 0x00, 0x00, 0x00, 0x4c, 0x00, 0x00, 0x00,
  0x08, 0x00, 0x00, 0x00, 0x00, 0x00, 0x00, 0x00, 0x00, 0x00, 0x00, 0x00,
  0x00, 0x00, 0x00, 0x00, 0x00, 0x00, 0x00, 0x00, 0x00, 0x00, 0x00, 0x00,
  0x00, 0x00, 0x00, 0x00, 0x00, 0x00, 0x00, 0x00, 0x00, 0x00, 0x00, 0x00,
  0x00, 0x00, 0x00, 0x00, 0x00, 0x00, 0x00, 0x00, 0x00, 0x00, 0x00, 0x00,
  0x00, 0x00, 0x00, 0x00, 0x00, 0x00, 0x00, 0x00, 0x00, 0x00, 0x00, 0x00,
  0x00, 0x00, 0x00, 0x00, 0x00, 0x00, 0x00, 0x00, 0x00, 0x00, 0x00, 0x00,
  0x08, 0x00, 0x00, 0x00, 0x64, 0xae, 0x5d, 0x3b, 0xde, 0x6a, 0x93, 0x3b,
  0xa9, 0xa0, 0x82, 0x3a, 0x2c, 0x31, 0x82, 0x3a, 0x7f, 0xee, 0x5b, 0x3b,
  0x2a, 0x56, 0x5f, 0x3b, 0x07, 0xf7, 0x6c, 0x3b, 0xc3, 0x31, 0x82, 0x3a,
  0x12, 0x00, 0x00, 0x00, 0x74, 0x66, 0x6c, 0x2e, 0x70, 0x73, 0x65, 0x75,
  0x64, 0x6f, 0x5f, 0x71, 0x63, 0x6f, 0x6e, 0x73, 0x74, 0x33, 0x00, 0x00,
  0x02, 0x00, 0x00, 0x00, 0x08, 0x00, 0x00, 0x00, 0xa0, 0x01, 0x00, 0x00,
  0x6a, 0xfe, 0xff, 0xff, 0x00, 0x00, 0x00, 0x01, 0x14, 0x00, 0x00, 0x00,
  0x84, 0x00, 0x00, 0x00, 0x05, 0x00, 0x00, 0x00, 0x00, 0x00, 0x00, 0x02,
  0x90, 0x00, 0x00, 0x00, 0xe4, 0xfe, 0xff, 0xff, 0x08, 0x00, 0x00, 0x00,
  0x48, 0x00, 0x00, 0x00, 0x08, 0x00, 0x00, 0x00, 0x00, 0x00, 0x00, 0x00,
  0x00, 0x00, 0x00, 0x00, 0x00, 0x00, 0x00, 0x00, 0x00, 0x00, 0x00, 0x00,
  0x00, 0x00, 0x00, 0x00, 0x00, 0x00, 0x00, 0x00, 0x00, 0x00, 0x00, 0x00,
  0x00, 0x00, 0x00, 0x00, 0x00, 0x00, 0x00, 0x00, 0x00, 0x00, 0x00, 0x00,
  0x00, 0x00, 0x00, 0x00, 0x00, 0x00, 0x00, 0x00, 0x00, 0x00, 0x00, 0x00,
  0x00, 0x00, 0x00, 0x00, 0x00, 0x00, 0x00, 0x00, 0x00, 0x00, 0x00, 0x00,
  0x08, 0x00, 0x00, 0x00, 0xfa, 0xf7, 0x65, 0x37, 0xb7, 0xed, 0x98, 0x37,
  0xd3, 0x82, 0x87, 0x36, 0x2b, 0x0f, 0x87, 0x36, 0x56, 0x27, 0x64, 0x37,
  0x98, 0xaf, 0x67, 0x37, 0xe3, 0xd2, 0x75, 0x37, 0xc7, 0x0f, 0x87, 0x36,
  0x12, 0x00, 0x00, 0x00, 0x74, 0x66, 0x6c, 0x2e, 0x70, 0x73, 0x65, 0x75,
  0x64, 0x6f, 0x5f, 0x71, 0x63, 0x6f, 0x6e, 0x73, 0x74, 0x32, 0x00, 0x00,
  0x01, 0x00, 0x00, 0x00, 0x08, 0x00, 0x00, 0x00, 0x1a, 0xff, 0xff, 0xff,
  0x00, 0x00, 0x00, 0x01, 0x14, 0x00, 0x00, 0x00, 0x3c, 0x00, 0x00, 0x00,
  0x04, 0x00, 0x00, 0x00, 0x00, 0x00, 0x00, 0x09, 0x48, 0x00, 0x00, 0x00,
  0x94, 0xff, 0xff, 0xff, 0x08, 0x00, 0x00, 0x00, 0x18, 0x00, 0x00, 0x00,
  0x02, 0x00, 0x00, 0x00, 0x00, 0x00, 0x00, 0x00, 0x00, 0x00, 0x00, 0x00,
  0x00, 0x00, 0x00, 0x00, 0x00, 0x00, 0x00, 0x00, 0x02, 0x00, 0x00, 0x00,
  0x08, 0x9a, 0xea, 0x3b, 0xcc, 0x3e, 0x26, 0x3c, 0x12, 0x00, 0x00, 0x00,
  0x74, 0x66, 0x6c, 0x2e, 0x70, 0x73, 0x65, 0x75, 0x64, 0x6f, 0x5f, 0x71,
  0x63, 0x6f, 0x6e, 0x73, 0x74, 0x31, 0x00, 0x00, 0x02, 0x00, 0x00, 0x00,
  0x02, 0x00, 0x00, 0x00, 0x08, 0x00, 0x00, 0x00, 0x86, 0xff, 0xff, 0xff,
  0x00, 0x00, 0x00, 0x01, 0x20, 0x00, 0x00, 0x00, 0x4c, 0x00, 0x00, 0x00,
  0x03, 0x00, 0x00, 0x00, 0x00, 0x00, 0x00, 0x02, 0x58, 0x00, 0x00, 0x00,
  0x0c, 0x00, 0x0c, 0x00, 0x00, 0x00, 0x00, 0x00, 0x08, 0x00, 0x04, 0x00,
  0x0c, 0x00, 0x00, 0x00, 0x08, 0x00, 0x00, 0x00, 0x1c, 0x00, 0x00, 0x00,
  0x02, 0x00, 0x00, 0x00, 0x00, 0x00, 0x00, 0x00, 0x00, 0x00, 0x00, 0x00,
  0x00, 0x00, 0x00, 0x00, 0x00, 0x00, 0x00, 0x00, 0x00, 0x00, 0x00, 0x00,
  0x02, 0x00, 0x00, 0x00, 0x16, 0x3f, 0x1b, 0x39, 0x1e, 0x06, 0x5c, 0x39,
  0x11, 0x00, 0x00, 0x00, 0x74, 0x66, 0x6c, 0x2e, 0x70, 0x73, 0x65, 0x75,
  0x64, 0x6f, 0x5f, 0x71, 0x63, 0x6f, 0x6e, 0x73, 0x74, 0x00, 0x00, 0x00,
  0x01, 0x00, 0x00, 0x00, 0x02, 0x00, 0x00, 0x00, 0x00, 0x00, 0x16, 0x00,
  0x1c, 0x00, 0x18, 0x00, 0x17, 0x00, 0x10, 0x00, 0x0c, 0x00, 0x08, 0x00,
  0x00, 0x00, 0x00, 0x00, 0x00, 0x00, 0x07, 0x00, 0x16, 0x00, 0x00, 0x00,
  0x00, 0x00, 0x00, 0x01, 0x14, 0x00, 0x00, 0x00, 0x14, 0x00, 0x00, 0x00,
  0x02, 0x00, 0x00, 0x00, 0x00, 0x00, 0x00, 0x02, 0x1c, 0x00, 0x00, 0x00,
  0x98, 0xff, 0xff, 0xff, 0x0e, 0x00, 0x00, 0x00, 0x61, 0x72, 0x69, 0x74,
  0x68, 0x2e, 0x63, 0x6f, 0x6e, 0x73, 0x74, 0x61, 0x6e, 0x74, 0x00, 0x00,
  0x01, 0x00, 0x00, 0x00, 0x02, 0x00, 0x00, 0x00, 0x00, 0x00, 0x16, 0x00,
  0x1c, 0x00, 0x18, 0x00, 0x00, 0x00, 0x14, 0x00, 0x10, 0x00, 0x0c, 0x00,
  0x00, 0x00, 0x00, 0x00, 0x08, 0x00, 0x07, 0x00, 0x16, 0x00, 0x00, 0x00,
  0x00, 0x00, 0x00, 0x01, 0x14, 0x00, 0x00, 0x00, 0x28, 0x00, 0x00, 0x00,
  0x28, 0x00, 0x00, 0x00, 0x01, 0x00, 0x00, 0x00, 0x48, 0x00, 0x00, 0x00,
  0x04, 0x00, 0x00, 0x00, 0xff, 0xff, 0xff, 0xff, 0x68, 0x00, 0x00, 0x00,
  0x06, 0x00, 0x00, 0x00, 0x01, 0x00, 0x00, 0x00, 0x04, 0x00, 0x04, 0x00,
  0x04, 0x00, 0x00, 0x00, 0x22, 0x00, 0x00, 0x00, 0x73, 0x65, 0x72, 0x76,
  0x69, 0x6e, 0x67, 0x5f, 0x64, 0x65, 0x66, 0x61, 0x75, 0x6c, 0x74, 0x5f,
  0x6b, 0x65, 0x72, 0x61, 0x73, 0x5f, 0x74, 0x65, 0x6e, 0x73, 0x6f, 0x72,
  0x5f, 0x31, 0x35, 0x36, 0x3a, 0x30, 0x00, 0x00, 0x04, 0x00, 0x00, 0x00,
  0x01, 0x00, 0x00, 0x00, 0x68, 0x00, 0x00, 0x00, 0x06, 0x00, 0x00, 0x00,
  0x01, 0x00, 0x00, 0x00, 0x07, 0x00, 0x00, 0x00, 0x90, 0x00, 0x00, 0x00,
  0x70, 0x00, 0x00, 0x00, 0x50, 0x00, 0x00, 0x00, 0x40, 0x00, 0x00, 0x00,
  0x2c, 0x00, 0x00, 0x00, 0x18, 0x00, 0x00, 0x00, 0x04, 0x00, 0x00, 0x00,
  0xb4, 0xff, 0xff, 0xff, 0x06, 0x00, 0x00, 0x00, 0x02, 0x00, 0x00, 0x00,
  0x00, 0x00, 0x00, 0x06, 0xc4, 0xff, 0xff, 0xff, 0x19, 0x00, 0x00, 0x00,
  0x02, 0x00, 0x00, 0x00, 0x00, 0x00, 0x00, 0x19, 0xd4, 0xff, 0xff, 0xff,
  0x09, 0x00, 0x00, 0x00, 0x04, 0x00, 0x00, 0x00, 0x00, 0x00, 0x00, 0x09,
  0xc8, 0xff, 0xff, 0xff, 0x16, 0x00, 0x00, 0x00, 0x00, 0x00, 0x00, 0x16,
  0xf0, 0xff, 0xff, 0xff, 0x11, 0x00, 0x00, 0x00, 0x02, 0x00, 0x00, 0x00,
  0x00, 0x00, 0x00, 0x11, 0x0c, 0x00, 0x10, 0x00, 0x0f, 0x00, 0x00, 0x00,
  0x08, 0x00, 0x04, 0x00, 0x0c, 0x00, 0x00, 0x00, 0x03, 0x00, 0x00, 0x00,
  0x03, 0x00, 0x00, 0x00, 0x00, 0x00, 0x00, 0x03, 0x0c, 0x00, 0x0c, 0x00,
  0x0b, 0x00, 0x00, 0x00, 0x00, 0x00, 0x04, 0x00, 0x0c, 0x00, 0x00, 0x00,
  0x72, 0x00, 0x00, 0x00, 0x00, 0x00, 0x00, 0x72
};
