const unsigned char model[] = {
  0x20, 0x00, 0x00, 0x00, 0x54, 0x46, 0x4c, 0x33, 0x00, 0x00, 0x00, 0x00,
  0x14, 0x00, 0x20, 0x00, 0x1c, 0x00, 0x18, 0x00, 0x14, 0x00, 0x10, 0x00,
  0x0c, 0x00, 0x00, 0x00, 0x08, 0x00, 0x04, 0x00, 0x14, 0x00, 0x00, 0x00,
  0x1c, 0x00, 0x00, 0x00, 0x8c, 0x00, 0x00, 0x00, 0x0c, 0x01, 0x00, 0x00,
  0xbc, 0x11, 0x00, 0x00, 0xcc, 0x11, 0x00, 0x00, 0xa0, 0x1d, 0x00, 0x00,
  0x03, 0x00, 0x00, 0x00, 0x01, 0x00, 0x00, 0x00, 0x04, 0x00, 0x00, 0x00,
  0x1a, 0xed, 0xff, 0xff, 0x0c, 0x00, 0x00, 0x00, 0x1c, 0x00, 0x00, 0x00,
  0x3c, 0x00, 0x00, 0x00, 0x0f, 0x00, 0x00, 0x00, 0x73, 0x65, 0x72, 0x76,
  0x69, 0x6e, 0x67, 0x5f, 0x64, 0x65, 0x66, 0x61, 0x75, 0x6c, 0x74, 0x00,
  0x01, 0x00, 0x00, 0x00, 0x04, 0x00, 0x00, 0x00, 0x68, 0xff, 0xff, 0xff,
  0x0f, 0x00, 0x00, 0x00, 0x04, 0x00, 0x00, 0x00, 0x08, 0x00, 0x00, 0x00,
  0x6f, 0x75, 0x74, 0x70, 0x75, 0x74, 0x5f, 0x30, 0x00, 0x00, 0x00, 0x00,
  0x01, 0x00, 0x00, 0x00, 0x04, 0x00, 0x00, 0x00, 0xfe, 0xed, 0xff, 0xff,
  0x04, 0x00, 0x00, 0x00, 0x0f, 0x00, 0x00, 0x00, 0x6b, 0x65, 0x72, 0x61,
  0x73, 0x5f, 0x74, 0x65, 0x6e, 0x73, 0x6f, 0x72, 0x5f, 0x34, 0x34, 0x00,
  0x03, 0x00, 0x00, 0x00, 0x5c, 0x00, 0x00, 0x00, 0x2c, 0x00, 0x00, 0x00,
  0x04, 0x00, 0x00, 0x00, 0xb8, 0xff, 0xff, 0xff, 0x13, 0x00, 0x00, 0x00,
  0x04, 0x00, 0x00, 0x00, 0x13, 0x00, 0x00, 0x00, 0x43, 0x4f, 0x4e, 0x56,
  0x45, 0x52, 0x53, 0x49, 0x4f, 0x4e, 0x5f, 0x4d, 0x45, 0x54, 0x41, 0x44,
  0x41, 0x54, 0x41, 0x00, 0xdc, 0xff, 0xff, 0xff, 0x12, 0x00, 0x00, 0x00,
  0x04, 0x00, 0x00, 0x00, 0x13, 0x00, 0x00, 0x00, 0x6d, 0x69, 0x6e, 0x5f,
  0x72, 0x75, 0x6e, 0x74, 0x69, 0x6d, 0x65, 0x5f, 0x76, 0x65, 0x72, 0x73,
  0x69, 0x6f, 0x6e, 0x00, 0x08, 0x00, 0x0c, 0x00, 0x08, 0x00, 0x04, 0x00,
  0x08, 0x00, 0x00, 0x00, 0x11, 0x00, 0x00, 0x00, 0x04, 0x00, 0x00, 0x00,
  0x13, 0x00, 0x00, 0x00, 0x6d, 0x69, 0x6e, 0x5f, 0x72, 0x75, 0x6e, 0x74,
  0x69, 0x6d, 0x65, 0x5f, 0x76, 0x65, 0x72, 0x73, 0x69, 0x6f, 0x6e, 0x00,
  0x14, 0x00, 0x00, 0x00, 0xac, 0x10, 0x00, 0x00, 0xa4, 0x10, 0x00, 0x00,
  0x8c, 0x10, 0x00, 0x00, 0x74, 0x10, 0x00, 0x00, 0x54, 0x10, 0x00, 0x00,
  0x24, 0x10, 0x00, 0x00, 0x14, 0x03, 0x00, 0x00, 0xe4, 0x02, 0x00, 0x00,
  0xf4, 0x00, 0x00, 0x00, 0xec, 0x00, 0x00, 0x00, 0xe4, 0x00, 0x00, 0x00,
  0xdc, 0x00, 0x00, 0x00, 0xd4, 0x00, 0x00, 0x00, 0xcc, 0x00, 0x00, 0x00,
  0xc4, 0x00, 0x00, 0x00, 0xbc, 0x00, 0x00, 0x00, 0xb4, 0x00, 0x00, 0x00,
  0x94, 0x00, 0x00, 0x00, 0x74, 0x00, 0x00, 0x00, 0x04, 0x00, 0x00, 0x00,
  0xf2, 0xee, 0xff, 0xff, 0x04, 0x00, 0x00, 0x00, 0x60, 0x00, 0x00, 0x00,
  0x0c, 0x00, 0x00, 0x00, 0x08, 0x00, 0x0e, 0x00, 0x08, 0x00, 0x04, 0x00,
  0x08, 0x00, 0x00, 0x00, 0x10, 0x00, 0x00, 0x00, 0x28, 0x00, 0x00, 0x00,
  0x00, 0x00, 0x06, 0x00, 0x08, 0x00, 0x04, 0x00, 0x06, 0x00, 0x00, 0x00,
  0x04, 0x00, 0x00, 0x00, 0x01, 0x00, 0x00, 0x00, 0xeb, 0x03, 0x00, 0x00,
  0x0c, 0x00, 0x18, 0x00, 0x14, 0x00, 0x10, 0x00, 0x0c, 0x00, 0x04, 0x00,
  0x0c, 0x00, 0x00, 0x00, 0x81, 0xe3, 0x37, 0x8c, 0xfd, 0x23, 0x6c, 0x42,
  0x02, 0x00, 0x00, 0x00, 0x02, 0x00, 0x00, 0x00, 0x04, 0x00, 0x00, 0x00,
  0x06, 0x00, 0x00, 0x00, 0x32, 0x2e, 0x31, 0x37, 0x2e, 0x30, 0x00, 0x00,
  0x5e, 0xef, 0xff, 0xff, 0x04, 0x00, 0x00, 0x00, 0x10, 0x00, 0x00, 0x00,
  0x00, 0x00, 0x00, 0x00, 0x00, 0x00, 0x00, 0x00, 0x00, 0x00, 0x00, 0x00,
  0x00, 0x00, 0x00, 0x00, 0x7a, 0xef, 0xff, 0xff, 0x04, 0x00, 0x00, 0x00,
  0x10, 0x00, 0x00, 0x00, 0x31, 0x2e, 0x31, 0x34, 0x2e, 0x30, 0x00, 0x00,
  0x00, 0x00, 0x00, 0x00, 0x00, 0x00, 0x00, 0x00, 0x9c, 0xe4, 0xff, 0xff,
  0xa0, 0xe4, 0xff, 0xff, 0xa4, 0xe4, 0xff, 0xff, 0xa8, 0xe4, 0xff, 0xff,
  0xac, 0xe4, 0xff, 0xff, 0xb0, 0xe4, 0xff, 0xff, 0xb4, 0xe4, 0xff, 0xff,
  0xb8, 0xe4, 0xff, 0xff, 0xb6, 0xef, 0xff, 0xff, 0x04, 0x00, 0x00, 0x00,
  0xe0, 0x01, 0x00, 0x00, 0x32, 0x15, 0x19, 0x05, 0xd3, 0xfa, 0xf1, 0xa5,
  0xf4, 0xdc, 0xae, 0xd8, 0x0d, 0xef, 0x2e, 0xb7, 0x45, 0x45, 0xed, 0x3d,
  0xbc, 0x9a, 0x5c, 0x43, 0xe8, 0x4f, 0xc4, 0x55, 0xf5, 0xbd, 0x32, 0xbe,
  0xec, 0x3b, 0x81, 0x14, 0xd2, 0xf2, 0x32, 0xd9, 0xef, 0xf3, 0xf9, 0x05,
  0xcf, 0xf4, 0x4f, 0xbc, 0x45, 0x69, 0xc0, 0x04, 0xeb, 0x4c, 0x13, 0xbd,
  0x1b, 0x13, 0x20, 0x55, 0x1d, 0xf2, 0xd5, 0xfa, 0x9a, 0x01, 0xdb, 0xa1,
  0xc3, 0x22, 0x91, 0x29, 0x3a, 0x9a, 0xe7, 0x58, 0x81, 0x29, 0x4a, 0xa7,
  0xf2, 0x72, 0xd0, 0xb7, 0x0a, 0x84, 0xcf, 0x08, 0xb5, 0xe7, 0x43, 0xc1,
  0x1a, 0xf2, 0xa0, 0xc7, 0x21, 0xee, 0xc3, 0x73, 0xbb, 0x16, 0x30, 0xd8,
  0xd7, 0x26, 0x08, 0xda, 0x35, 0x0a, 0xf9, 0x51, 0xbd, 0xf2, 0x41, 0x37,
  0xe0, 0x0f, 0xeb, 0x21, 0x67, 0xaa, 0x09, 0x03, 0xc8, 0x07, 0x33, 0xa2,
  0x48, 0x1e, 0xfd, 0x47, 0xc0, 0x6f, 0x44, 0xc7, 0x1a, 0xdf, 0x9f, 0x64,
  0xbb, 0x9b, 0x31, 0x22, 0x03, 0x61, 0x1e, 0xbc, 0xc1, 0xb3, 0x23, 0x0b,
  0xab, 0x42, 0xd6, 0xc8, 0x4e, 0x81, 0xcd, 0x6d, 0xa8, 0xb2, 0x1f, 0xfb,
  0x2a, 0xe9, 0x4f, 0x4d, 0xf2, 0xf8, 0xb1, 0xfa, 0x14, 0xc9, 0xba, 0x58,
  0x4c, 0xf5, 0xef, 0x5e, 0x15, 0xec, 0x4a, 0x0d, 0xeb, 0x31, 0xee, 0x08,
  0x38, 0x16, 0xcb, 0x37, 0x01, 0xd5, 0x12, 0xca, 0x09, 0x40, 0xe2, 0x95,
  0x51, 0xed, 0xbb, 0x50, 0x3f, 0xaf, 0x62, 0x13, 0xc5, 0xea, 0x3e, 0xe0,
  0x7f, 0x59, 0xa1, 0x4b, 0xef, 0xfc, 0x42, 0x5c, 0x06, 0x02, 0xd5, 0x0f,
  0x6e, 0x5a, 0x22, 0x25, 0x15, 0xca, 0x71, 0xd7, 0xf6, 0x2e, 0x4f, 0x2a,
  0x25, 0xe1, 0x38, 0x06, 0xee, 0xab, 0xd3, 0xd8, 0xd3, 0xbd, 0x4f, 0x1f,
  0xc5, 0x04, 0x32, 0xb8, 0x01, 0xf3, 0xb4, 0x2d, 0xf1, 0x57, 0xf9, 0xd7,
  0x3f, 0xbd, 0xfd, 0x34, 0xb9, 0xf7, 0x7f, 0xb9, 0xf7, 0x57, 0xed, 0xc0,
  0x17, 0xfb, 0x33, 0xae, 0x3a, 0x63, 0xae, 0xee, 0x4e, 0xf4, 0x5f, 0xf9,
  0x0f, 0x5a, 0xcb, 0xe5, 0x5f, 0xfb, 0xc7, 0x1c, 0xff, 0xe6, 0xb1, 0xf5,
  0x51, 0x9a, 0x27, 0x45, 0x2d, 0x6b, 0xc9, 0xbc, 0xcc, 0x27, 0x99, 0x10,
  0x25, 0xb5, 0xe8, 0x0c, 0x37, 0xb3, 0x14, 0x55, 0x27, 0xb0, 0xe7, 0xf9,
  0xd8, 0x3d, 0xdb, 0x84, 0x3d, 0xac, 0xda, 0x44, 0xdc, 0x3c, 0x0d, 0x16,
  0x7f, 0xe2, 0x78, 0x79, 0xa2, 0x6a, 0x48, 0xf9, 0xe1, 0xe6, 0x37, 0xa8,
  0x2a, 0xd2, 0x44, 0xd2, 0x18, 0xff, 0xba, 0xfb, 0xd5, 0xa4, 0xeb, 0xc9,
  0xbc, 0x01, 0x35, 0x69, 0x46, 0xb9, 0xfa, 0x15, 0x12, 0x07, 0xd8, 0xeb,
  0x5b, 0xdf, 0x87, 0x5e, 0x6b, 0x82, 0x9d, 0x6a, 0x46, 0x45, 0xa5, 0xa9,
  0x3d, 0x54, 0xa1, 0x0e, 0x47, 0xb5, 0xcc, 0x26, 0x8a, 0x17, 0xef, 0x92,
  0x94, 0x55, 0x0b, 0x45, 0x1b, 0xc0, 0x56, 0xbc, 0x9e, 0xc7, 0x1c, 0x47,
  0x30, 0xd5, 0xa2, 0x4c, 0x24, 0xdf, 0x4d, 0xff, 0x40, 0x35, 0x20, 0x2a,
  0xf1, 0x5c, 0x81, 0x87, 0x16, 0xd1, 0x36, 0xda, 0x48, 0xfe, 0x01, 0x50,
  0x91, 0xc6, 0xf3, 0xee, 0x4b, 0xae, 0x0e, 0x3e, 0xc7, 0x0a, 0x98, 0x45,
  0x20, 0xa0, 0x0c, 0x2d, 0x35, 0x03, 0xd3, 0xe0, 0x13, 0x36, 0x22, 0xae,
  0x56, 0x34, 0x8d, 0x18, 0x58, 0xcf, 0xa4, 0x3d, 0x0e, 0xbb, 0xc8, 0x99,
  0x2e, 0x31, 0xe1, 0x9d, 0x10, 0x50, 0xb2, 0x81, 0x23, 0x52, 0x0f, 0x67,
  0xf8, 0xd9, 0x40, 0x5a, 0xa2, 0xf1, 0xff, 0xff, 0x04, 0x00, 0x00, 0x00,
  0x20, 0x00, 0x00, 0x00, 0x9f, 0x05, 0x00, 0x00, 0x4d, 0x04, 0x00, 0x00,
  0x18, 0x03, 0x00, 0x00, 0x15, 0xe6, 0xff, 0xff, 0xa6, 0x10, 0x00, 0x00,
  0xb8, 0x07, 0x00, 0x00, 0x31, 0x0d, 0x00, 0x00, 0xd1, 0x10, 0x00, 0x00,
  0xce, 0xf1, 0xff, 0xff, 0x04, 0x00, 0x00, 0x00, 0x00, 0x0d, 0x00, 0x00,
  0x6a, 0x23, 0xb7, 0x24, 0x98, 0x25, 0x71, 0xf9, 0x2d, 0x35, 0x94, 0x93,
  0x94, 0xec, 0xc6, 0xcc, 0xff, 0x60, 0x08, 0xad, 0xc8, 0x68, 0x2f, 0xb0,
  0x09, 0xec, 0x49, 0xd3, 0x0e, 0x0d, 0x2e, 0xb9, 0x0a, 0x47, 0x37, 0xe7,
  0x91, 0xbc, 0x0b, 0xc6, 0xf5, 0xa8, 0x04, 0xee, 0x24, 0xfb, 0x6d, 0x49,
  0x25, 0xe7, 0x1a, 0x18, 0x0e, 0xa5, 0x68, 0xd0, 0xa7, 0xcc, 0xd9, 0xce,
  0x2c, 0x47, 0x97, 0xc5, 0xd9, 0x12, 0x61, 0x94, 0x5d, 0x45, 0x1e, 0x4e,
  0x62, 0x08, 0x8c, 0xaf, 0x1c, 0xa1, 0x81, 0xa3, 0x60, 0x6a, 0x84, 0x2c,
  0xc0, 0x00, 0x96, 0x8b, 0x53, 0xf3, 0x19, 0xa1, 0x2c, 0xcb, 0x8b, 0x37,
  0x16, 0x35, 0x31, 0xd1, 0x96, 0x27, 0xea, 0xb8, 0xe7, 0xa1, 0x21, 0x17,
  0xa1, 0xde, 0xda, 0xb6, 0xd6, 0xa8, 0xac, 0x41, 0xba, 0xf7, 0xf7, 0xed,
  0x97, 0xa8, 0x5b, 0xa1, 0xf8, 0x50, 0x0e, 0xba, 0xc3, 0xbf, 0x2f, 0x50,
  0xa2, 0xfe, 0x87, 0xcd, 0x6c, 0x21, 0x46, 0xd0, 0xb3, 0x18, 0x17, 0x6c,
  0xb4, 0x60, 0x46, 0x09, 0x8f, 0x32, 0x8f, 0x88, 0x17, 0x5c, 0xb6, 0x5b,
  0xf0, 0x0c, 0xcb, 0x3a, 0x58, 0x52, 0x3b, 0xc6, 0xa0, 0x2a, 0x5c, 0x23,
  0xe0, 0x22, 0x5a, 0x43, 0x2b, 0x09, 0xd7, 0x9a, 0x2a, 0xe3, 0xbb, 0x35,
  0x92, 0x9a, 0xdc, 0xba, 0x47, 0xfc, 0x3d, 0x89, 0xba, 0x9f, 0x28, 0x81,
  0xd6, 0x96, 0x84, 0x73, 0x51, 0xf9, 0xa8, 0x8e, 0xe8, 0xcb, 0x58, 0x12,
  0xe5, 0x4a, 0x8d, 0x13, 0xb6, 0x6b, 0x4e, 0x6f, 0xb7, 0xa1, 0xee, 0x6a,
  0x6a, 0xe7, 0x40, 0xc9, 0x77, 0xdc, 0xfe, 0x3e, 0xaa, 0x72, 0xab, 0xbd,
  0xb1, 0x16, 0xc7, 0xe4, 0x52, 0xf6, 0x36, 0x1e, 0x66, 0x04, 0x5f, 0xba,
  0xc4, 0x22, 0xbd, 0xdb, 0xf9, 0x01, 0x1e, 0x62, 0x71, 0x3e, 0xdd, 0xd3,
  0x6c, 0xec, 0xca, 0xef, 0xbf, 0xed, 0xb2, 0x1c, 0xf3, 0xe1, 0xd6, 0xa0,
  0xa1, 0x9c, 0x5a, 0x6d, 0x91, 0xd2, 0xdd, 0x70, 0x35, 0x6c, 0x59, 0x56,
  0x08, 0xb7, 0x8a, 0xa5, 0xbf, 0x3a, 0x5f, 0xab, 0xe5, 0x86, 0xfa, 0x40,
  0x44, 0x50, 0xbe, 0x48, 0x35, 0x6f, 0xec, 0xf7, 0x14, 0x4e, 0x57, 0xb6,
  0x1b, 0xa6, 0x08, 0xdb, 0x3b, 0xba, 0x22, 0xdc, 0x5f, 0x3e, 0x63, 0x56,
  0x27, 0xca, 0x47, 0x8b, 0x1e, 0xc5, 0xf0, 0x59, 0x1e, 0x95, 0x91, 0xec,
  0xda, 0xf1, 0x81, 0x03, 0x9b, 0xe6, 0x5b, 0xbb, 0xec, 0x65, 0xac, 0x3d,
  0xfb, 0x71, 0x94, 0x8f, 0xbe, 0x1e, 0xdc, 0xb8, 0x9c, 0xdc, 0xc8, 0x48,
  0x27, 0xaa, 0x2f, 0xb5, 0xfd, 0xee, 0x6b, 0x33, 0x08, 0x54, 0x1c, 0x63,
  0xd5, 0x63, 0xec, 0x08, 0x3f, 0xbd, 0x99, 0xc2, 0xbb, 0x86, 0x66, 0xaf,
  0x48, 0x49, 0xf6, 0x42, 0xe9, 0x2a, 0xdc, 0x30, 0x78, 0xb9, 0x23, 0x52,
  0x02, 0xcd, 0x9e, 0x4a, 0xb3, 0x18, 0x4c, 0x4d, 0x5a, 0x57, 0xf2, 0xaf,
  0xfa, 0x97, 0xc8, 0xc9, 0x4c, 0x88, 0x70, 0xa1, 0xd2, 0x89, 0xd0, 0xa8,
  0x70, 0xf9, 0xc6, 0x91, 0xcd, 0x5f, 0x94, 0xf1, 0xf1, 0xc7, 0xeb, 0xf0,
  0x18, 0x0f, 0xe0, 0x01, 0xeb, 0xe9, 0xfe, 0x21, 0xee, 0x07, 0xcd, 0x0d,
  0x01, 0xba, 0x03, 0x2c, 0xf8, 0xfb, 0xfd, 0xe5, 0xf5, 0xc8, 0xf1, 0xfd,
  0xf8, 0x07, 0xd3, 0xea, 0xd4, 0xee, 0xe6, 0x19, 0x08, 0xdd, 0xc7, 0xe3,
  0xce, 0xdc, 0xbb, 0x24, 0xb3, 0xcb, 0xe7, 0xf0, 0xb8, 0xcf, 0xb1, 0x19,
  0xd4, 0xcc, 0x04, 0xec, 0xb1, 0xd9, 0xab, 0x11, 0xd2, 0xee, 0xd1, 0xc5,
  0xa5, 0xd4, 0x99, 0x1d, 0xae, 0xb1, 0xfb, 0xef, 0xca, 0xf3, 0xa5, 0xfa,
  0xd8, 0xc0, 0xea, 0xe8, 0xb7, 0xe7, 0xc8, 0x1f, 0x99, 0xb1, 0xce, 0xd0,
  0xa2, 0x04, 0x9c, 0x17, 0xae, 0xaf, 0x07, 0xc5, 0xb1, 0xfd, 0xc6, 0x1d,
  0xba, 0xc5, 0xcf, 0xb7, 0xb7, 0xf6, 0x9c, 0x03, 0xb0, 0xa0, 0xff, 0xd6,
  0xa3, 0x19, 0xa9, 0x04, 0xa0, 0xaa, 0xfd, 0xcb, 0xb5, 0x2e, 0xb0, 0x25,
  0x9c, 0xc6, 0x09, 0xd9, 0x9b, 0x19, 0xba, 0x29, 0x9b, 0xa8, 0x11, 0xdf,
  0xa9, 0x31, 0x9f, 0x12, 0xc3, 0xca, 0x0c, 0xc1, 0xb0, 0x1f, 0x9e, 0x0a,
  0xaa, 0xba, 0xff, 0xc9, 0xbb, 0x2a, 0xb2, 0x36, 0x9c, 0xe2, 0xfe, 0xfa,
  0xb2, 0x18, 0xad, 0x28, 0xc3, 0xb4, 0xe4, 0xf9, 0xb4, 0x24, 0xa6, 0x28,
  0xd0, 0xbf, 0xe2, 0xe0, 0x96, 0x0b, 0xd4, 0x33, 0xcc, 0xdd, 0x11, 0xe4,
  0xc5, 0x0f, 0xcf, 0x2e, 0xcd, 0xbb, 0x0e, 0xd7, 0xa4, 0x27, 0xab, 0x00,
  0x98, 0xd0, 0xdf, 0xca, 0xbd, 0x39, 0xc9, 0x2f, 0x97, 0xa9, 0xed, 0xdb,
  0xb7, 0x51, 0x98, 0x0e, 0xa4, 0xd5, 0xeb, 0xc2, 0x8e, 0x25, 0x98, 0xff,
  0xb0, 0xce, 0x0d, 0xf2, 0x9e, 0x58, 0xa4, 0x25, 0xca, 0xaa, 0xe0, 0xf0,
  0xbd, 0x57, 0xb2, 0x2a, 0xbf, 0xc9, 0x0d, 0xec, 0x8e, 0x52, 0xa5, 0x29,
  0xac, 0x9a, 0x06, 0xc6, 0xad, 0x59, 0xad, 0x0b, 0x92, 0xb3, 0xf4, 0xd8,
  0xa1, 0x48, 0x96, 0x22, 0x90, 0xa6, 0xed, 0xe1, 0x8a, 0x17, 0xc1, 0x28,
  0xa3, 0x97, 0xfd, 0xdf, 0x98, 0x24, 0xa6, 0x0f, 0x81, 0xa4, 0x1c, 0xf6,
  0xa1, 0x3e, 0x8e, 0x2f, 0xa3, 0xb6, 0x16, 0xf3, 0xbd, 0x2a, 0xa7, 0x11,
  0x85, 0xa5, 0x00, 0xf3, 0xab, 0x46, 0x9f, 0xfe, 0xa6, 0xae, 0x16, 0xf3,
  0x8e, 0x4e, 0x94, 0x2e, 0xc3, 0xc5, 0x00, 0x01, 0xcd, 0x1f, 0xa5, 0x1e,
  0xcd, 0xbb, 0x03, 0xf0, 0xc8, 0x3e, 0xbf, 0x16, 0xad, 0xb3, 0xfb, 0xf6,
  0xad, 0x4e, 0xd6, 0x26, 0xc1, 0xc0, 0x12, 0xff, 0xeb, 0x4c, 0xd8, 0x13,
  0xc3, 0xdd, 0xf4, 0x1e, 0xe2, 0x1f, 0xd5, 0x04, 0xe2, 0xc7, 0xf4, 0xe9,
  0xec, 0x24, 0xc1, 0x06, 0xd9, 0xe9, 0x0c, 0x1d, 0xd6, 0x56, 0xef, 0x2c,
  0xda, 0xfb, 0xf7, 0x05, 0xe0, 0x56, 0x14, 0x0b, 0xc0, 0xfa, 0x24, 0x03,
  0x03, 0x49, 0x05, 0x00, 0x14, 0x19, 0x1f, 0x04, 0x10, 0x64, 0x2b, 0x31,
  0xdf, 0x09, 0xfb, 0x31, 0x01, 0x51, 0x48, 0x18, 0x21, 0x17, 0x1c, 0xff,
  0x0e, 0x31, 0x1f, 0x35, 0x2f, 0xf0, 0x06, 0x09, 0x1b, 0x37, 0x03, 0x13,
  0x2a, 0x30, 0x18, 0x14, 0xfb, 0x12, 0x33, 0xfd, 0x10, 0xe6, 0x42, 0x05,
  0xef, 0x2a, 0x13, 0xdc, 0xfa, 0xee, 0x38, 0x1d, 0xde, 0x2b, 0x1d, 0xe4,
  0x06, 0x0b, 0x07, 0x19, 0x0f, 0x3d, 0x21, 0x08, 0x15, 0x22, 0x2e, 0x23,
  0x21, 0x41, 0xf4, 0x10, 0xea, 0x1c, 0x0c, 0x35, 0xfe, 0x0e, 0x2d, 0x11,
  0x3e, 0x27, 0x20, 0x35, 0x0a, 0x34, 0x16, 0xfe, 0x31, 0x2c, 0x44, 0xf6,
  0xfc, 0x12, 0x4c, 0xf7, 0x2b, 0x2a, 0x04, 0xfd, 0x37, 0x0a, 0x64, 0xe9,
  0x38, 0x44, 0x17, 0xf8, 0x34, 0xe2, 0x28, 0xe5, 0x2c, 0x1b, 0x19, 0xfa,
  0x22, 0x2b, 0x60, 0x02, 0x76, 0x40, 0x2b, 0x4c, 0x53, 0xe8, 0x77, 0x00,
  0x40, 0x0e, 0x1e, 0x35, 0x5d, 0xe7, 0x68, 0xd6, 0x62, 0x1c, 0x14, 0x17,
  0x1d, 0xc4, 0x4f, 0x0a, 0x53, 0x15, 0x3d, 0x55, 0x33, 0xf7, 0x69, 0x16,
  0x6d, 0x40, 0xf8, 0x2a, 0x26, 0xde, 0x62, 0x10, 0x58, 0x4d, 0x40, 0x09,
  0x3c, 0xf2, 0x50, 0x0c, 0x4b, 0x5a, 0x2e, 0x46, 0x20, 0xbe, 0x47, 0x0e,
  0x51, 0x41, 0x26, 0x2e, 0x34, 0xef, 0x51, 0xe9, 0x47, 0x5e, 0xe7, 0x3e,
  0x54, 0xd0, 0x50, 0xff, 0x41, 0x46, 0xf4, 0x03, 0x30, 0xc5, 0x45, 0xd9,
  0x7c, 0x23, 0x24, 0x1d, 0x53, 0xc7, 0x6a, 0xe2, 0x38, 0x45, 0x0a, 0x35,
  0x40, 0xb5, 0x59, 0x18, 0x76, 0x49, 0xf2, 0x13, 0x32, 0xd0, 0x4d, 0x08,
  0x30, 0x11, 0x16, 0x14, 0x67, 0xc2, 0x2d, 0xfb, 0x41, 0x3f, 0x05, 0x3a,
  0x44, 0xd3, 0x62, 0x1d, 0x3f, 0x4f, 0x27, 0x43, 0x2f, 0xce, 0x31, 0xef,
  0x50, 0x34, 0x11, 0x40, 0x57, 0xe7, 0x66, 0xee, 0x43, 0x3d, 0x12, 0x01,
  0x67, 0xda, 0x42, 0xe4, 0x35, 0x22, 0xfd, 0x49, 0x25, 0x9e, 0x69, 0xf8,
  0x7a, 0x23, 0x06, 0x2b, 0x70, 0xb1, 0x3c, 0x1e, 0x30, 0x4a, 0x2a, 0x1a,
  0x62, 0xa3, 0x2f, 0xea, 0x55, 0x40, 0xf5, 0x2e, 0x66, 0xe7, 0x45, 0x11,
  0x74, 0x58, 0xdb, 0x04, 0x70, 0xf3, 0x38, 0x02, 0x5d, 0x52, 0x0e, 0x20,
  0x38, 0xe2, 0x41, 0xf1, 0x71, 0x45, 0xea, 0x07, 0x37, 0xe5, 0x68, 0xf6,
  0x47, 0x1a, 0xd1, 0x2c, 0x6d, 0xe9, 0x4a, 0xed, 0x6c, 0x1d, 0xfa, 0xea,
  0x23, 0xbd, 0x44, 0x0d, 0x58, 0x22, 0xed, 0xe8, 0x10, 0xbe, 0x63, 0xf5,
  0x7f, 0x2e, 0xd5, 0x33, 0x0b, 0x01, 0x73, 0xe3, 0x29, 0x45, 0xfd, 0xf2,
  0x35, 0xc9, 0x21, 0xef, 0x5d, 0x45, 0x0b, 0x0c, 0x3d, 0x00, 0x0c, 0x22,
  0x4a, 0x37, 0x10, 0x1a, 0x02, 0xdb, 0x4b, 0xf0, 0x16, 0x29, 0x15, 0xed,
  0x27, 0xeb, 0x0c, 0xf9, 0x06, 0x24, 0xd8, 0x14, 0x0b, 0xe1, 0x0f, 0xf9,
  0xfd, 0xe7, 0xfe, 0x07, 0x2d, 0xda, 0x01, 0xe0, 0x0b, 0x12, 0x0d, 0x1c,
  0x1b, 0xd3, 0x08, 0xdf, 0x18, 0xe8, 0xea, 0xe3, 0xd4, 0x98, 0xf9, 0x0a,
  0x0b, 0xe1, 0xea, 0xf6, 0xf1, 0xb6, 0xee, 0xfe, 0x17, 0xf2, 0x02, 0xc1,
  0x25, 0xe8, 0xd8, 0xe1, 0xef, 0x00, 0xf3, 0xd7, 0xf9, 0xac, 0xcc, 0xf9,
  0xa9, 0xf5, 0x18, 0xca, 0x0f, 0xf7, 0xda, 0xf2, 0x0f, 0x13, 0x02, 0x1b,
  0xeb, 0xe3, 0x22, 0x22, 0x20, 0xeb, 0xef, 0x19, 0xf4, 0xed, 0xf8, 0x03,
  0x0c, 0x1c, 0xc1, 0xe9, 0x04, 0xc5, 0xfa, 0x23, 0xfb, 0xe9, 0xf7, 0xfc,
  0x0f, 0xc1, 0xfe, 0x11, 0x24, 0x1a, 0xbb, 0xd7, 0x00, 0xe5, 0xe8, 0x16,
  0x07, 0xe0, 0xd1, 0xd8, 0xc2, 0xeb, 0xcb, 0x26, 0xe1, 0xf3, 0xf3, 0xf6,
  0xc3, 0xce, 0xd8, 0x2e, 0xbc, 0xf5, 0xd3, 0xfc, 0xe4, 0xcc, 0xc6, 0x0d,
  0xa4, 0xc6, 0xfe, 0xd6, 0xd2, 0x02, 0xc5, 0xf8, 0xcd, 0xb7, 0xe1, 0xd8,
  0x9b, 0x03, 0xc7, 0x10, 0xd0, 0xc6, 0xc3, 0xed, 0xc1, 0x00, 0x94, 0x2a,
  0xa0, 0xba, 0xe4, 0xe1, 0x9d, 0x14, 0xbb, 0x1b, 0xc2, 0xca, 0x08, 0xd9,
  0xbd, 0x12, 0x98, 0x16, 0xa5, 0xc2, 0xc9, 0xd6, 0xad, 0x2a, 0xb7, 0x2f,
  0xb6, 0xd7, 0xe1, 0xbe, 0x92, 0x32, 0x8e, 0x25, 0x9a, 0xcf, 0x06, 0xf5,
  0xd1, 0x26, 0x91, 0x36, 0xc0, 0xbe, 0x0a, 0xc1, 0xce, 0x3a, 0xc4, 0x10,
  0x9a, 0xd4, 0x0f, 0xb5, 0xbe, 0x2e, 0xa7, 0x0f, 0xad, 0xb4, 0xdf, 0xcd,
  0xc9, 0x26, 0xce, 0x22, 0xa4, 0xb7, 0xdf, 0xdc, 0x9a, 0x16, 0xae, 0x2c,
  0x98, 0xcb, 0xdc, 0xc9, 0xd6, 0x15, 0xd3, 0x14, 0xb6, 0xac, 0xd9, 0xc0,
  0xb1, 0x4b, 0xb8, 0x18, 0x9e, 0xd2, 0x0e, 0xd4, 0xba, 0x17, 0xa1, 0x27,
  0xbe, 0xc5, 0x12, 0xe3, 0x9d, 0x3a, 0xb0, 0x22, 0xc5, 0xa8, 0xe7, 0xee,
  0xcb, 0x3c, 0xbf, 0x03, 0xb7, 0xa5, 0xe1, 0xc8, 0xbf, 0x54, 0xce, 0xfb,
  0xb4, 0xb0, 0x1a, 0xca, 0xd4, 0x44, 0xb0, 0x01, 0xab, 0xb1, 0x00, 0xc8,
  0x9b, 0x3c, 0xb0, 0x0b, 0x9a, 0xbc, 0xe3, 0xd7, 0xca, 0x2a, 0xc4, 0x1c,
  0xc5, 0xcd, 0xe9, 0xb9, 0xaa, 0x41, 0xcb, 0x25, 0xbc, 0xa6, 0xf7, 0xe3,
  0xae, 0x18, 0xb8, 0x33, 0xb7, 0x9f, 0x1e, 0xe9, 0xc5, 0x3b, 0x8b, 0x01,
  0xba, 0xca, 0x03, 0xd6, 0x8d, 0x34, 0x97, 0xf8, 0xa4, 0xcc, 0x12, 0xe0,
  0xa8, 0x39, 0xb4, 0x21, 0x8e, 0xb9, 0x0a, 0xde, 0xa1, 0x2c, 0xb8, 0x11,
  0x92, 0x9c, 0xec, 0xd7, 0xb3, 0x45, 0x95, 0x2c, 0x95, 0xa7, 0x24, 0xc8,
  0xbd, 0x1c, 0xa1, 0x06, 0x81, 0xce, 0x1b, 0x05, 0xc3, 0x2b, 0xa1, 0x2d,
  0x8f, 0xa6, 0x15, 0xdf, 0xbb, 0x51, 0xbc, 0x11, 0xad, 0xd1, 0x04, 0x04,
  0xb5, 0x33, 0x89, 0x0c, 0xc4, 0xda, 0x1f, 0xe2, 0xce, 0x4e, 0xa0, 0xf8,
  0x9d, 0xe1, 0xfd, 0xd7, 0xed, 0x2b, 0xb8, 0x36, 0xb2, 0xf5, 0x02, 0xfa,
  0xc8, 0x49, 0xd6, 0xf9, 0xc0, 0xe0, 0x10, 0xe9, 0xd6, 0x5f, 0xcb, 0x32,
  0xe4, 0x0f, 0x02, 0x24, 0xfe, 0x3f, 0xcf, 0x1b, 0xfe, 0xe6, 0x12, 0x1a,
  0x12, 0x47, 0xfc, 0x23, 0xcb, 0x07, 0xfc, 0x29, 0xe0, 0x3e, 0xfe, 0x04,
  0xef, 0xf4, 0x1a, 0xf4, 0xf2, 0x32, 0x0f, 0x1f, 0xe2, 0x1a, 0x1c, 0x34,
  0xfc, 0x74, 0x30, 0x05, 0xf2, 0x1a, 0x3a, 0x30, 0xe3, 0x3c, 0x5c, 0x14,
  0xf7, 0xec, 0xfd, 0x2c, 0x07, 0x2a, 0x35, 0x18, 0x46, 0xff, 0x30, 0x40,
  0x1e, 0x36, 0x00, 0x10, 0x24, 0x28, 0x03, 0x0c, 0x0f, 0xe9, 0x10, 0x31,
  0x0f, 0x0e, 0xda, 0x17, 0x1a, 0xdc, 0x0d, 0xe8, 0x10, 0x22, 0xdf, 0xe1,
  0x1c, 0xc9, 0xe3, 0x07, 0x26, 0x2c, 0xee, 0x09, 0x13, 0xe4, 0xf9, 0x29,
  0xe9, 0xea, 0xcf, 0xd3, 0xf5, 0xd0, 0x17, 0x03, 0x20, 0xf1, 0xc6, 0xf8,
  0xe3, 0xe5, 0xb2, 0x15, 0xf4, 0xf9, 0x09, 0xc8, 0xee, 0xfe, 0xbd, 0x27,
  0xc9, 0xe4, 0xdc, 0xf9, 0xf2, 0xd5, 0xbd, 0x25, 0xaa, 0x02, 0xe1, 0xe4,
  0xc9, 0xe9, 0xaa, 0x16, 0xc9, 0xec, 0xfa, 0x05, 0xc8, 0x05, 0xc3, 0x1e,
  0xbe, 0xd8, 0xd3, 0x08, 0xc4, 0xd6, 0x91, 0x0b, 0x93, 0xe2, 0xc8, 0xdc,
  0xc0, 0x09, 0x8d, 0x0f, 0xa6, 0xdb, 0xed, 0xf2, 0xb8, 0x12, 0xcd, 0x1c,
  0x8f, 0xf8, 0xdc, 0xcb, 0xc7, 0x17, 0xc0, 0xf8, 0x9f, 0xd6, 0x09, 0xbb,
  0xde, 0x28, 0xa4, 0x1a, 0xd4, 0xb7, 0xf6, 0xcb, 0xe8, 0x1d, 0xc0, 0xfe,
  0x9a, 0xc8, 0x03, 0xf5, 0xc6, 0x31, 0xa8, 0xf0, 0xa7, 0xde, 0x17, 0xd1,
  0xbe, 0x2f, 0xa9, 0x2c, 0xac, 0xf4, 0x17, 0xc1, 0xb2, 0x45, 0xa2, 0xf1,
  0xdb, 0xfb, 0xe6, 0xf9, 0xe0, 0x41, 0xb9, 0xf0, 0x9f, 0xdc, 0xdf, 0xf9,
  0xdd, 0x45, 0xa1, 0x15, 0xce, 0xc4, 0xe8, 0xdb, 0xea, 0x30, 0xd5, 0x24,
  0xd8, 0xc4, 0xdf, 0xc3, 0xb4, 0x10, 0xcf, 0x23, 0x9e, 0xef, 0xfe, 0xe0,
  0xb8, 0x15, 0xb9, 0x1c, 0xa6, 0xdf, 0xeb, 0xfc, 0xac, 0x47, 0xb7, 0xfa,
  0xb0, 0xb4, 0x0a, 0xfe, 0xe7, 0x0f, 0xa6, 0x2c, 0x9d, 0xd2, 0xd9, 0xd7,
  0xe4, 0x1a, 0xcd, 0x00, 0x91, 0xcb, 0x09, 0xd1, 0xb6, 0x42, 0x9a, 0x2b,
  0x9c, 0xcf, 0xe2, 0xcc, 0xc4, 0x1d, 0xa1, 0x07, 0xcc, 0xc9, 0xfa, 0xe4,
  0xd6, 0x45, 0xd8, 0xf7, 0x96, 0xb7, 0xf9, 0xe4, 0xbb, 0x47, 0xc7, 0x07,
  0x9b, 0xcb, 0xfe, 0xf6, 0xc4, 0x39, 0x92, 0x2d, 0xcd, 0xce, 0xe7, 0xce,
  0xcd, 0x16, 0xa8, 0x0b, 0x8d, 0xda, 0x1a, 0xfa, 0xbd, 0x25, 0xc0, 0x08,
  0xbe, 0xb6, 0x13, 0xe5, 0xd3, 0x2f, 0x9c, 0x23, 0x81, 0xc4, 0x11, 0x03,
  0xad, 0x11, 0x8c, 0x22, 0x88, 0xc9, 0x13, 0xe4, 0xd8, 0x14, 0xaf, 0x09,
  0xa6, 0xd5, 0xe9, 0xf7, 0xdb, 0x51, 0xc4, 0x2d, 0xb3, 0xc6, 0x1b, 0x02,
  0xd2, 0x1f, 0xb8, 0x26, 0xc0, 0xf5, 0x27, 0xd9, 0xca, 0x4e, 0xc8, 0x03,
  0x98, 0xf6, 0xf2, 0xe3, 0x00, 0x1d, 0xab, 0x31, 0xcb, 0xd2, 0x20, 0x11,
  0xf9, 0x50, 0xba, 0xf8, 0xd1, 0xf1, 0x22, 0xf4, 0xe3, 0x0c, 0xe8, 0x1e,
  0xcd, 0x0c, 0xe7, 0x19, 0xdf, 0x15, 0x04, 0x04, 0xed, 0xdf, 0x08, 0xfc,
  0xde, 0x58, 0x0e, 0x09, 0xbe, 0x19, 0xe9, 0x31, 0xe1, 0x39, 0x06, 0x31,
  0xc2, 0xd8, 0x10, 0xfc, 0xfd, 0x3d, 0x1d, 0x30, 0xbe, 0xe5, 0x30, 0xf0,
  0x1d, 0x4f, 0x22, 0x1e, 0xea, 0x2c, 0xed, 0x2a, 0xe4, 0x43, 0x01, 0x21,
  0x0e, 0x0d, 0x28, 0x36, 0x1e, 0x29, 0x4a, 0xfa, 0x19, 0xfe, 0x15, 0x0b,
  0xfa, 0x59, 0x2c, 0x32, 0x5a, 0x17, 0xed, 0x3c, 0xf5, 0x26, 0x17, 0x25,
  0x1d, 0x2e, 0x36, 0xfd, 0xd8, 0xa2, 0x06, 0x3d, 0xdf, 0xdc, 0x03, 0x4f,
  0xc5, 0xef, 0x39, 0x35, 0x4f, 0x2f, 0x30, 0xc2, 0xec, 0x06, 0x15, 0x49,
  0xbd, 0x6a, 0xc5, 0x87, 0xeb, 0xb7, 0x59, 0xb6, 0xbf, 0xe8, 0x37, 0xcc,
  0x19, 0x90, 0x8c, 0xee, 0xb1, 0xd7, 0xbf, 0xf4, 0x77, 0x36, 0xcc, 0xcd,
  0xea, 0x28, 0x22, 0x2b, 0x19, 0xc8, 0x3e, 0xc6, 0x59, 0xce, 0xe6, 0x33,
  0xe0, 0xa3, 0x6f, 0x97, 0xd3, 0x25, 0x07, 0xbc, 0x61, 0xee, 0xf5, 0x40,
  0x51, 0x21, 0xd1, 0x6e, 0xbf, 0x03, 0x31, 0xd9, 0x06, 0x34, 0x83, 0x2a,
  0x3a, 0x32, 0xae, 0x91, 0x9a, 0x40, 0x28, 0xa0, 0x9b, 0x37, 0x5b, 0xb5,
  0x23, 0x20, 0xc9, 0x52, 0x50, 0xee, 0xdd, 0x35, 0xd0, 0xa4, 0xbf, 0xd8,
  0x29, 0xee, 0x22, 0xdd, 0x2e, 0xbe, 0x23, 0x67, 0x5f, 0xb3, 0xcd, 0x01,
  0x2b, 0x6b, 0x8b, 0x40, 0xce, 0xdc, 0xc4, 0x8a, 0xd1, 0x94, 0x1f, 0xca,
  0xab, 0x48, 0xf4, 0x5d, 0xe6, 0x2f, 0x39, 0x4d, 0x97, 0xcd, 0xd0, 0xf2,
  0x55, 0x03, 0x92, 0x3a, 0xe7, 0x15, 0xc8, 0xbd, 0xe3, 0xf4, 0x47, 0x12,
  0x9e, 0x21, 0xf9, 0xce, 0x11, 0x9f, 0x68, 0x54, 0xd3, 0x1b, 0x6a, 0x89,
  0x10, 0x54, 0xde, 0x37, 0xfe, 0xf4, 0x99, 0x60, 0xdc, 0x47, 0xe4, 0x59,
  0xb2, 0x4a, 0xaf, 0xd3, 0x56, 0xb9, 0x44, 0x01, 0x07, 0x2b, 0x94, 0x89,
  0x0e, 0xc9, 0x09, 0x8a, 0x93, 0x27, 0xe0, 0x09, 0x9a, 0xb8, 0xb7, 0xaf,
  0x2f, 0x69, 0xa4, 0x92, 0x9f, 0x05, 0xb8, 0x41, 0x4a, 0xc6, 0xc8, 0x28,
  0x03, 0xd5, 0x6f, 0xeb, 0x9b, 0xf5, 0x6e, 0xca, 0xb7, 0xe5, 0x3c, 0x36,
  0x94, 0x37, 0xe2, 0xde, 0x9d, 0x3a, 0x8e, 0x65, 0x61, 0xe9, 0xfc, 0x6d,
  0xf7, 0x94, 0x92, 0xdc, 0xab, 0x5b, 0xd5, 0x66, 0x27, 0x97, 0x0e, 0x98,
  0x2b, 0x43, 0xa2, 0xa3, 0x10, 0x19, 0x0a, 0xd8, 0x5a, 0xf7, 0x65, 0x85,
  0xa3, 0x6b, 0x21, 0xe0, 0xce, 0xee, 0x01, 0xf8, 0xdb, 0x5e, 0xe9, 0xfa,
  0x36, 0xf7, 0x16, 0xb4, 0xd8, 0x50, 0x93, 0xe1, 0xbc, 0x1d, 0xfa, 0x33,
  0x8c, 0xbd, 0x81, 0x63, 0xdb, 0xb6, 0x1c, 0x47, 0x05, 0xa7, 0x30, 0xc9,
  0xa5, 0xaa, 0x6a, 0xdd, 0xe9, 0xce, 0xc0, 0x34, 0xe1, 0x42, 0x6e, 0x62,
  0x56, 0x9c, 0x43, 0xf6, 0x31, 0x3b, 0x08, 0x26, 0x27, 0xc1, 0xcb, 0xe2,
  0x3d, 0xf2, 0xaa, 0x55, 0xe8, 0x87, 0x19, 0x99, 0x71, 0xc0, 0x52, 0xc2,
  0x61, 0xfd, 0xbd, 0x3d, 0x6d, 0xf7, 0xaf, 0xde, 0xf9, 0x09, 0x09, 0xbb,
  0xfc, 0xbc, 0xbd, 0x42, 0xc5, 0x29, 0x87, 0x69, 0x25, 0x1f, 0xe0, 0x54,
  0xf0, 0x2b, 0x65, 0xfc, 0xd5, 0x94, 0x28, 0xfd, 0x75, 0xe2, 0xef, 0xc7,
  0x66, 0xe2, 0xe3, 0x18, 0xfa, 0xc5, 0x6a, 0xcc, 0xf2, 0x0f, 0x6f, 0xe4,
  0x6d, 0xb1, 0x25, 0x4e, 0x0b, 0x2b, 0x29, 0x8d, 0x8e, 0x83, 0x8d, 0xe9,
  0xa0, 0x85, 0x13, 0xd9, 0x18, 0x87, 0xab, 0xc3, 0x9d, 0x00, 0x02, 0x15,
  0x07, 0x52, 0xd9, 0x6c, 0x08, 0x83, 0x3f, 0x88, 0x6f, 0x2c, 0x9f, 0x97,
  0xa3, 0x83, 0x55, 0xb7, 0xf7, 0xb4, 0x74, 0xa6, 0xcd, 0x11, 0x51, 0x9b,
  0xdd, 0xf5, 0x1a, 0xdc, 0xd0, 0x10, 0x39, 0xd4, 0xc1, 0x51, 0x21, 0x8a,
  0xbf, 0x84, 0x9d, 0x61, 0xa9, 0xc9, 0x3e, 0x9f, 0xc0, 0x14, 0x17, 0x85,
  0x35, 0xf5, 0x53, 0x5c, 0x02, 0x9c, 0xd3, 0xf0, 0x8d, 0xb4, 0xe4, 0xd2,
  0x58, 0x4f, 0x17, 0xb7, 0xe6, 0xf0, 0xc7, 0xfc, 0x98, 0x44, 0x1f, 0xa1,
  0xfc, 0xfa, 0x37, 0x06, 0x95, 0x88, 0x21, 0xb5, 0x36, 0x38, 0x48, 0xbf,
  0x8e, 0x93, 0x87, 0xae, 0xf8, 0xf8, 0x61, 0x45, 0x68, 0xf2, 0x82, 0x6e,
  0xa5, 0xc0, 0x49, 0xef, 0x5f, 0x95, 0x06, 0x39, 0x5c, 0xec, 0x5e, 0xff,
  0xb5, 0xd0, 0x5b, 0x5d, 0xde, 0xc6, 0xfc, 0x2d, 0x21, 0xdc, 0x27, 0xe6,
  0x92, 0x25, 0x5f, 0xd6, 0xec, 0x56, 0xcf, 0x2e, 0xe2, 0x06, 0x15, 0x71,
  0x69, 0x53, 0xec, 0xee, 0x3d, 0xb0, 0xc8, 0x66, 0xdd, 0x42, 0xd5, 0x62,
  0x95, 0x52, 0xad, 0x91, 0xea, 0xe0, 0x9f, 0xb1, 0xba, 0x72, 0x42, 0xb6,
  0x9e, 0x2b, 0xc4, 0x30, 0x26, 0x87, 0x74, 0x74, 0xf0, 0xcc, 0xe8, 0x92,
  0xd6, 0x34, 0xed, 0xa5, 0x0d, 0xd3, 0x21, 0xe3, 0x65, 0x65, 0xe1, 0x57,
  0x88, 0x99, 0x1d, 0xf8, 0x4d, 0xeb, 0xf7, 0x62, 0x1f, 0x88, 0x30, 0x4f,
  0xf1, 0x6b, 0x19, 0x4b, 0x81, 0x0f, 0xba, 0xf8, 0x06, 0x88, 0x9e, 0xed,
  0x54, 0xc8, 0xf6, 0x03, 0x8e, 0x23, 0x96, 0xce, 0xa7, 0x02, 0x5e, 0x27,
  0x30, 0xd2, 0xa2, 0x27, 0x27, 0x66, 0xbf, 0xbf, 0x5f, 0xd9, 0x5b, 0x45,
  0xb5, 0x96, 0x35, 0x10, 0x8a, 0x1c, 0xc9, 0x60, 0x47, 0xb5, 0xdf, 0x87,
  0x5d, 0x3e, 0xc5, 0x0e, 0x51, 0xb7, 0x8a, 0xca, 0x26, 0x1c, 0x25, 0xaa,
  0x92, 0x39, 0xd3, 0x15, 0xba, 0x0f, 0x13, 0x6f, 0x38, 0x84, 0xef, 0x8b,
  0x44, 0x41, 0x1c, 0x21, 0xeb, 0x5a, 0xf9, 0x8f, 0x21, 0xe8, 0x25, 0xe5,
  0x4f, 0x83, 0x17, 0xd1, 0x27, 0x58, 0x55, 0x9e, 0xe9, 0xfb, 0x00, 0x13,
  0x6b, 0xf4, 0xce, 0x99, 0xe9, 0x51, 0x02, 0x40, 0x53, 0x5a, 0x5b, 0xd6,
  0x90, 0x55, 0xd1, 0x51, 0x61, 0xfc, 0x8a, 0x9f, 0x56, 0x78, 0x44, 0x37,
  0x12, 0x31, 0xf9, 0x3b, 0xa6, 0xd1, 0x6b, 0x84, 0xc5, 0x92, 0xe2, 0x5e,
  0x1d, 0xef, 0xcd, 0xd5, 0x45, 0xc6, 0x27, 0xe4, 0x06, 0x1c, 0xfe, 0x12,
  0x6f, 0x5a, 0xa5, 0xe3, 0x8a, 0x60, 0x46, 0xb2, 0x9f, 0xb1, 0x14, 0x70,
  0x3b, 0xf0, 0xc4, 0x16, 0x21, 0xb9, 0x0b, 0x07, 0xb4, 0xab, 0xe9, 0x21,
  0xea, 0x42, 0x8a, 0xb6, 0xc0, 0xf6, 0x71, 0x97, 0x66, 0xaa, 0x8d, 0xa2,
  0xec, 0x05, 0x8c, 0xfc, 0xed, 0x4a, 0xc6, 0x96, 0x74, 0xec, 0x54, 0x00,
  0x40, 0x05, 0x38, 0xc5, 0xe0, 0x15, 0x73, 0x18, 0x2d, 0x3a, 0xba, 0x25,
  0xc2, 0x5d, 0x05, 0x2b, 0x35, 0x92, 0x1e, 0x95, 0x00, 0x55, 0xc1, 0x50,
  0xbb, 0xd9, 0x61, 0x10, 0x27, 0xc8, 0x3f, 0x51, 0xf0, 0x28, 0x25, 0xfb,
  0x97, 0x6f, 0x70, 0xfe, 0x0a, 0xb0, 0xc5, 0x3b, 0x09, 0x4b, 0x27, 0x1e,
  0x21, 0xf4, 0xfa, 0x28, 0x1d, 0x23, 0x2c, 0xe2, 0x04, 0xf7, 0x18, 0x2d,
  0x00, 0x28, 0x0b, 0xea, 0xf8, 0x29, 0x11, 0xed, 0x21, 0x59, 0x25, 0xe4,
  0xe4, 0xee, 0x02, 0x02, 0xfc, 0x05, 0x05, 0xd9, 0x2a, 0x16, 0x11, 0x18,
  0x07, 0x30, 0x3c, 0x02, 0x4c, 0x06, 0x39, 0x0a, 0x0b, 0x15, 0x15, 0xf1,
  0x36, 0x08, 0x1e, 0x00, 0x35, 0x14, 0x32, 0x06, 0x28, 0x2c, 0x37, 0x27,
  0x0f, 0x1c, 0x68, 0x02, 0x65, 0x39, 0x01, 0x0d, 0x0f, 0x1b, 0x28, 0x14,
  0x59, 0x1c, 0x3c, 0x2d, 0x21, 0xdc, 0x4e, 0xe9, 0x32, 0x3e, 0x2d, 0x40,
  0x32, 0xe9, 0x2f, 0x12, 0x53, 0x08, 0x10, 0x3a, 0x5e, 0xdc, 0x45, 0x10,
  0x3c, 0x25, 0x15, 0x25, 0x45, 0xde, 0x5a, 0xf6, 0x6e, 0x27, 0x38, 0x0f,
  0x37, 0xf6, 0x34, 0xea, 0x4c, 0x29, 0xfa, 0x40, 0x68, 0x02, 0x46, 0x18,
  0x68, 0x24, 0x26, 0x38, 0x57, 0xd9, 0x4e, 0xfd, 0x3a, 0x5c, 0x0a, 0x50,
  0x2a, 0xe1, 0x70, 0xee, 0x4c, 0x21, 0x1b, 0x31, 0x24, 0xc3, 0x4d, 0x13,
  0x74, 0x47, 0x18, 0x29, 0x41, 0xfb, 0x41, 0x13, 0x5b, 0x25, 0x25, 0x05,
  0x68, 0xd4, 0x55, 0xf1, 0x40, 0x3c, 0xf9, 0x4e, 0x5d, 0xc9, 0x66, 0xff,
  0x5e, 0x51, 0x0b, 0x14, 0x63, 0xb2, 0x45, 0xef, 0x39, 0x1f, 0x1d, 0x42,
  0x52, 0xe4, 0x49, 0xe5, 0x2f, 0x5b, 0x19, 0x43, 0x27, 0xae, 0x4b, 0x1c,
  0x35, 0x40, 0xed, 0x09, 0x35, 0xc8, 0x5b, 0xee, 0x51, 0x36, 0x2a, 0x3b,
  0x69, 0xae, 0x2b, 0xe0, 0x46, 0x56, 0x19, 0x2c, 0x33, 0xde, 0x76, 0xeb,
  0x44, 0x51, 0x2b, 0x31, 0x3b, 0xa6, 0x3f, 0xeb, 0x63, 0x32, 0x05, 0x4f,
  0x63, 0xe7, 0x66, 0xeb, 0x7f, 0x25, 0x07, 0x0e, 0x6e, 0xdb, 0x39, 0x10,
  0x7b, 0x21, 0x12, 0x4c, 0x37, 0xe0, 0x5a, 0xfc, 0x66, 0x58, 0xf5, 0x02,
  0x37, 0xac, 0x6a, 0xd8, 0x3e, 0x48, 0xe4, 0x07, 0x62, 0xbc, 0x5e, 0xf4,
  0x73, 0x1a, 0x15, 0x0e, 0x3f, 0xdd, 0x30, 0xe1, 0x6c, 0x44, 0x16, 0x1c,
  0x44, 0xce, 0x5a, 0xf4, 0x7b, 0x56, 0x04, 0x0a, 0x47, 0xd5, 0x41, 0xd6,
  0x3a, 0x49, 0xe0, 0x10, 0x5a, 0xe2, 0x75, 0xed, 0x6d, 0x44, 0x08, 0x08,
  0x17, 0xe3, 0x35, 0x05, 0x64, 0x37, 0xe2, 0xee, 0x27, 0xc3, 0x26, 0xfa,
  0x74, 0x37, 0xe0, 0xf5, 0x29, 0xff, 0x55, 0x16, 0x55, 0x39, 0xfe, 0x03,
  0x10, 0xca, 0x29, 0x01, 0x25, 0x14, 0xf2, 0x16, 0x27, 0xba, 0x19, 0x09,
  0x23, 0x01, 0xf8, 0x23, 0x0b, 0xed, 0x27, 0x1b, 0x3e, 0xfc, 0xe4, 0xe1,
  0x23, 0xd1, 0x0c, 0x04, 0x11, 0x03, 0x13, 0x1a, 0x16, 0xc2, 0xec, 0xf2,
  0x1d, 0x20, 0xe0, 0xfa, 0xf2, 0xdf, 0xf9, 0x13, 0x04, 0xef, 0xe5, 0xf1,
  0xd8, 0xc6, 0xe3, 0x08, 0xfb, 0x1f, 0xe2, 0xdf, 0xd7, 0xc4, 0xfb, 0xe2,
  0x2a, 0x0b, 0xdd, 0xdf, 0xf5, 0xdf, 0xea, 0xeb, 0xf5, 0xe7, 0xe7, 0xf2,
  0x22, 0xba, 0xed, 0xdd, 0xbf, 0x09, 0x04, 0xf9, 0xce, 0x09, 0x26, 0x1e,
  0x09, 0x10, 0x18, 0xfd, 0xda, 0xfe, 0xff, 0xff, 0x04, 0x00, 0x00, 0x00,
  0x20, 0x00, 0x00, 0x00, 0x7c, 0xfb, 0xff, 0xff, 0x4f, 0x07, 0x00, 0x00,
  0x32, 0x07, 0x00, 0x00, 0xb0, 0x06, 0x00, 0x00, 0x5f, 0x04, 0x00, 0x00,
  0x0f, 0xfa, 0xff, 0xff, 0x69, 0xfc, 0xff, 0xff, 0x2f, 0x05, 0x00, 0x00,
  0x06, 0xff, 0xff, 0xff, 0x04, 0x00, 0x00, 0x00, 0x10, 0x00, 0x00, 0x00,
  0x3e, 0x01, 0x6d, 0x99, 0xdb, 0xed, 0xa8, 0x7f, 0xe0, 0x7f, 0x82, 0x05,
  0x78, 0x35, 0xd7, 0xd4, 0x22, 0xff, 0xff, 0xff, 0x04, 0x00, 0x00, 0x00,
  0x08, 0x00, 0x00, 0x00, 0x14, 0x01, 0x00, 0x00, 0xc5, 0xfe, 0xff, 0xff,
  0x36, 0xff, 0xff, 0xff, 0x04, 0x00, 0x00, 0x00, 0x08, 0x00, 0x00, 0x00,
  0xff, 0xff, 0xff, 0xff, 0xa0, 0x01, 0x00, 0x00, 0x50, 0xf4, 0xff, 0xff,
  0x54, 0xf4, 0xff, 0xff, 0x0f, 0x00, 0x00, 0x00, 0x4d, 0x4c, 0x49, 0x52,
  0x20, 0x43, 0x6f, 0x6e, 0x76, 0x65, 0x72, 0x74, 0x65, 0x64, 0x2e, 0x00,
  0x01, 0x00, 0x00, 0x00, 0x14, 0x00, 0x00, 0x00, 0x00, 0x00, 0x0e, 0x00,
  0x18, 0x00, 0x14, 0x00, 0x10, 0x00, 0x0c, 0x00, 0x08, 0x00, 0x04, 0x00,
  0x0e, 0x00, 0x00, 0x00, 0x14, 0x00, 0x00, 0x00, 0x1c, 0x00, 0x00, 0x00,
  0x0c, 0x02, 0x00, 0x00, 0x10, 0x02, 0x00, 0x00, 0x14, 0x02, 0x00, 0x00,
  0x04, 0x00, 0x00, 0x00, 0x6d, 0x61, 0x69, 0x6e, 0x00, 0x00, 0x00, 0x00,
  0x08, 0x00, 0x00, 0x00, 0xd4, 0x01, 0x00, 0x00, 0x78, 0x01, 0x00, 0x00,
  0x14, 0x01, 0x00, 0x00, 0xec, 0x00, 0x00, 0x00, 0x9c, 0x00, 0x00, 0x00,
  0x64, 0x00, 0x00, 0x00, 0x28, 0x00, 0x00, 0x00, 0x04, 0x00, 0x00, 0x00,
  0x32, 0xff, 0xff, 0xff, 0x0c, 0x00, 0x00, 0x00, 0x10, 0x00, 0x00, 0x00,
  0x06, 0x00, 0x00, 0x00, 0x01, 0x00, 0x00, 0x00, 0x0f, 0x00, 0x00, 0x00,
  0x01, 0x00, 0x00, 0x00, 0x0e, 0x00, 0x00, 0x00, 0xd2, 0xfe, 0xff, 0xff,
  0x1c, 0x00, 0x00, 0x00, 0x00, 0x00, 0x00, 0x09, 0x1c, 0x00, 0x00, 0x00,
  0x20, 0x00, 0x00, 0x00, 0x05, 0x00, 0x00, 0x00, 0x00, 0x00, 0x06, 0x00,
  0x08, 0x00, 0x04, 0x00, 0x06, 0x00, 0x00, 0x00, 0x00, 0x00, 0x80, 0x3f,
  0x01, 0x00, 0x00, 0x00, 0x0e, 0x00, 0x00, 0x00, 0x01, 0x00, 0x00, 0x00,
  0x0d, 0x00, 0x00, 0x00, 0x0a, 0xff, 0xff, 0xff, 0x14, 0x00, 0x00, 0x00,
  0x00, 0x00, 0x00, 0x08, 0x10, 0x00, 0x00, 0x00, 0x14, 0x00, 0x00, 0x00,
  0x04, 0x00, 0x00, 0x00, 0x3c, 0xf5, 0xff, 0xff, 0x01, 0x00, 0x00, 0x00,
  0x0d, 0x00, 0x00, 0x00, 0x03, 0x00, 0x00, 0x00, 0x0c, 0x00, 0x00, 0x00,
  0x03, 0x00, 0x00, 0x00, 0x02, 0x00, 0x00, 0x00, 0x3e, 0xff, 0xff, 0xff,
  0x1c, 0x00, 0x00, 0x00, 0x00, 0x00, 0x00, 0x08, 0x1c, 0x00, 0x00, 0x00,
  0x20, 0x00, 0x00, 0x00, 0x04, 0x00, 0x00, 0x00, 0x00, 0x00, 0x06, 0x00,
  0x08, 0x00, 0x07, 0x00, 0x06, 0x00, 0x00, 0x00, 0x00, 0x00, 0x00, 0x01,
  0x01, 0x00, 0x00, 0x00, 0x0c, 0x00, 0x00, 0x00, 0x03, 0x00, 0x00, 0x00,
  0x0b, 0x00, 0x00, 0x00, 0x05, 0x00, 0x00, 0x00, 0x04, 0x00, 0x00, 0x00,
  0x00, 0x00, 0x0a, 0x00, 0x10, 0x00, 0x0c, 0x00, 0x08, 0x00, 0x04, 0x00,
  0x0a, 0x00, 0x00, 0x00, 0x0c, 0x00, 0x00, 0x00, 0x10, 0x00, 0x00, 0x00,
  0x03, 0x00, 0x00, 0x00, 0x01, 0x00, 0x00, 0x00, 0x0b, 0x00, 0x00, 0x00,
  0x02, 0x00, 0x00, 0x00, 0x0a, 0x00, 0x00, 0x00, 0x01, 0x00, 0x00, 0x00,
  0xae, 0xff, 0xff, 0xff, 0x24, 0x00, 0x00, 0x00, 0x00, 0x00, 0x00, 0x05,
  0x34, 0x00, 0x00, 0x00, 0x38, 0x00, 0x00, 0x00, 0x02, 0x00, 0x00, 0x00,
  0x00, 0x00, 0x0e, 0x00, 0x18, 0x00, 0x17, 0x00, 0x10, 0x00, 0x0c, 0x00,
  0x08, 0x00, 0x04, 0x00, 0x0e, 0x00, 0x00, 0x00, 0x02, 0x00, 0x00, 0x00,
  0x06, 0x00, 0x00, 0x00, 0x02, 0x00, 0x00, 0x00, 0x06, 0x00, 0x00, 0x00,
  0x00, 0x00, 0x00, 0x01, 0x01, 0x00, 0x00, 0x00, 0x0a, 0x00, 0x00, 0x00,
  0x01, 0x00, 0x00, 0x00, 0x09, 0x00, 0x00, 0x00, 0x00, 0x00, 0x0e, 0x00,
  0x18, 0x00, 0x14, 0x00, 0x10, 0x00, 0x0c, 0x00, 0x0b, 0x00, 0x04, 0x00,
  0x0e, 0x00, 0x00, 0x00, 0x20, 0x00, 0x00, 0x00, 0x00, 0x00, 0x00, 0x01,
  0x28, 0x00, 0x00, 0x00, 0x2c, 0x00, 0x00, 0x00, 0x01, 0x00, 0x00, 0x00,
  0x0c, 0x00, 0x10, 0x00, 0x00, 0x00, 0x0c, 0x00, 0x08, 0x00, 0x07, 0x00,
  0x0c, 0x00, 0x00, 0x00, 0x00, 0x00, 0x00, 0x01, 0x01, 0x00, 0x00, 0x00,
  0x01, 0x00, 0x00, 0x00, 0x01, 0x00, 0x00, 0x00, 0x09, 0x00, 0x00, 0x00,
  0x03, 0x00, 0x00, 0x00, 0x08, 0x00, 0x00, 0x00, 0x07, 0x00, 0x00, 0x00,
  0x06, 0x00, 0x00, 0x00, 0x00, 0x00, 0x0a, 0x00, 0x0c, 0x00, 0x00, 0x00,
  0x08, 0x00, 0x04, 0x00, 0x0a, 0x00, 0x00, 0x00, 0x08, 0x00, 0x00, 0x00,
  0x0c, 0x00, 0x00, 0x00, 0x01, 0x00, 0x00, 0x00, 0x08, 0x00, 0x00, 0x00,
  0x01, 0x00, 0x00, 0x00, 0x00, 0x00, 0x00, 0x00, 0x01, 0x00, 0x00, 0x00,
  0x0f, 0x00, 0x00, 0x00, 0x01, 0x00, 0x00, 0x00, 0x00, 0x00, 0x00, 0x00,
  0x10, 0x00, 0x00, 0x00, 0x20, 0x09, 0x00, 0x00, 0xc8, 0x08, 0x00, 0x00,
  0x34, 0x08, 0x00, 0x00, 0xc4, 0x07, 0x00, 0x00, 0x10, 0x07, 0x00, 0x00,
  0x54, 0x06, 0x00, 0x00, 0xa0, 0x05, 0x00, 0x00, 0xdc, 0x04, 0x00, 0x00,
  0x58, 0x04, 0x00, 0x00, 0x64, 0x03, 0x00, 0x00, 0xc8, 0x02, 0x00, 0x00,
  0x44, 0x02, 0x00, 0x00, 0x88, 0x01, 0x00, 0x00, 0xe4, 0x00, 0x00, 0x00,
  0x60, 0x00, 0x00, 0x00, 0x04, 0x00, 0x00, 0x00, 0x36, 0xf7, 0xff, 0xff,
  0x00, 0x00, 0x00, 0x01, 0x14, 0x00, 0x00, 0x00, 0x1c, 0x00, 0x00, 0x00,
  0x1c, 0x00, 0x00, 0x00, 0x10, 0x00, 0x00, 0x00, 0x34, 0x00, 0x00, 0x00,
  0x02, 0x00, 0x00, 0x00, 0xff, 0xff, 0xff, 0xff, 0x02, 0x00, 0x00, 0x00,
  0x18, 0xf7, 0xff, 0xff, 0x1b, 0x00, 0x00, 0x00, 0x53, 0x74, 0x61, 0x74,
  0x65, 0x66, 0x75, 0x6c, 0x50, 0x61, 0x72, 0x74, 0x69, 0x74, 0x69, 0x6f,
  0x6e, 0x65, 0x64, 0x43, 0x61, 0x6c, 0x6c, 0x5f, 0x31, 0x3a, 0x30, 0x00,
  0x02, 0x00, 0x00, 0x00, 0x01, 0x00, 0x00, 0x00, 0x02, 0x00, 0x00, 0x00,
  0x36, 0xfc, 0xff, 0xff, 0x00, 0x00, 0x00, 0x01, 0x18, 0x00, 0x00, 0x00,
  0x20, 0x00, 0x00, 0x00, 0x40, 0x00, 0x00, 0x00, 0x0f, 0x00, 0x00, 0x00,
  0x00, 0x00, 0x00, 0x09, 0x58, 0x00, 0x00, 0x00, 0x02, 0x00, 0x00, 0x00,
  0xff, 0xff, 0xff, 0xff, 0x02, 0x00, 0x00, 0x00, 0x6c, 0xf8, 0xff, 0xff,
  0x08, 0x00, 0x00, 0x00, 0x14, 0x00, 0x00, 0x00, 0x01, 0x00, 0x00, 0x00,
  0x80, 0xff, 0xff, 0xff, 0xff, 0xff, 0xff, 0xff, 0x00, 0x00, 0x00, 0x00,
  0x01, 0x00, 0x00, 0x00, 0x00, 0x00, 0x80, 0x3b, 0x1c, 0x00, 0x00, 0x00,
  0x53, 0x74, 0x61, 0x74, 0x65, 0x66, 0x75, 0x6c, 0x50, 0x61, 0x72, 0x74,
  0x69, 0x74, 0x69, 0x6f, 0x6e, 0x65, 0x64, 0x43, 0x61, 0x6c, 0x6c, 0x5f,
  0x31, 0x3a, 0x30, 0x31, 0x00, 0x00, 0x00, 0x00, 0x02, 0x00, 0x00, 0x00,
  0x01, 0x00, 0x00, 0x00, 0x02, 0x00, 0x00, 0x00, 0xb6, 0xfc, 0xff, 0xff,
  0x00, 0x00, 0x00, 0x01, 0x18, 0x00, 0x00, 0x00, 0x20, 0x00, 0x00, 0x00,
  0x40, 0x00, 0x00, 0x00, 0x0e, 0x00, 0x00, 0x00, 0x00, 0x00, 0x00, 0x09,
  0x78, 0x00, 0x00, 0x00, 0x02, 0x00, 0x00, 0x00, 0xff, 0xff, 0xff, 0xff,
  0x02, 0x00, 0x00, 0x00, 0xec, 0xf8, 0xff, 0xff, 0x08, 0x00, 0x00, 0x00,
  0x14, 0x00, 0x00, 0x00, 0x01, 0x00, 0x00, 0x00, 0xe6, 0xff, 0xff, 0xff,
  0xff, 0xff, 0xff, 0xff, 0x00, 0x00, 0x00, 0x00, 0x01, 0x00, 0x00, 0x00,
  0x1b, 0xf4, 0x77, 0x3d, 0x3c, 0x00, 0x00, 0x00, 0x73, 0x65, 0x71, 0x75,
  0x65, 0x6e, 0x74, 0x69, 0x61, 0x6c, 0x5f, 0x32, 0x5f, 0x31, 0x2f, 0x64,
  0x65, 0x6e, 0x73, 0x65, 0x5f, 0x35, 0x5f, 0x31, 0x2f, 0x4d, 0x61, 0x74,
  0x4d, 0x75, 0x6c, 0x3b, 0x73, 0x65, 0x71, 0x75, 0x65, 0x6e, 0x74, 0x69,
  0x61, 0x6c, 0x5f, 0x32, 0x5f, 0x31, 0x2f, 0x64, 0x65, 0x6e, 0x73, 0x65,
  0x5f, 0x35, 0x5f, 0x31, 0x2f, 0x41, 0x64, 0x64, 0x00, 0x00, 0x00, 0x00,
  0x02, 0x00, 0x00, 0x00, 0x01, 0x00, 0x00, 0x00, 0x02, 0x00, 0x00, 0x00,
  0x56, 0xfd, 0xff, 0xff, 0x00, 0x00, 0x00, 0x01, 0x18, 0x00, 0x00, 0x00,
  0x20, 0x00, 0x00, 0x00, 0x3c, 0x00, 0x00, 0x00, 0x0d, 0x00, 0x00, 0x00,
  0x00, 0x00, 0x00, 0x09, 0x90, 0x00, 0x00, 0x00, 0x02, 0x00, 0x00, 0x00,
  0xff, 0xff, 0xff, 0xff, 0x08, 0x00, 0x00, 0x00, 0x8c, 0xf9, 0xff, 0xff,
  0x08, 0x00, 0x00, 0x00, 0x10, 0x00, 0x00, 0x00, 0x01, 0x00, 0x00, 0x00,
  0x80, 0xff, 0xff, 0xff, 0xff, 0xff, 0xff, 0xff, 0x01, 0x00, 0x00, 0x00,
  0x06, 0x4a, 0xbd, 0x3c, 0x5a, 0x00, 0x00, 0x00, 0x73, 0x65, 0x71, 0x75,
  0x65, 0x6e, 0x74, 0x69, 0x61, 0x6c, 0x5f, 0x32, 0x5f, 0x31, 0x2f, 0x64,
  0x65, 0x6e, 0x73, 0x65, 0x5f, 0x34, 0x5f, 0x31, 0x2f, 0x4d, 0x61, 0x74,
  0x4d, 0x75, 0x6c, 0x3b, 0x73, 0x65, 0x71, 0x75, 0x65, 0x6e, 0x74, 0x69,
  0x61, 0x6c, 0x5f, 0x32, 0x5f, 0x31, 0x2f, 0x64, 0x65, 0x6e, 0x73, 0x65,
  0x5f, 0x34, 0x5f, 0x31, 0x2f, 0x52, 0x65, 0x6c, 0x75, 0x3b, 0x73, 0x65,
  0x71, 0x75, 0x65, 0x6e, 0x74, 0x69, 0x61, 0x6c, 0x5f, 0x32, 0x5f, 0x31,
  0x2f, 0x64, 0x65, 0x6e, 0x73, 0x65, 0x5f, 0x34, 0x5f, 0x31, 0x2f, 0x41,
  0x64, 0x64, 0x00, 0x00, 0x02, 0x00, 0x00, 0x00, 0x01, 0x00, 0x00, 0x00,
  0x08, 0x00, 0x00, 0x00, 0x0e, 0xfe, 0xff, 0xff, 0x00, 0x00, 0x00, 0x01,
  0x18, 0x00, 0x00, 0x00, 0x20, 0x00, 0x00, 0x00, 0x3c, 0x00, 0x00, 0x00,
  0x0c, 0x00, 0x00, 0x00, 0x00, 0x00, 0x00, 0x09, 0x58, 0x00, 0x00, 0x00,
  0x02, 0x00, 0x00, 0x00, 0xff, 0xff, 0xff, 0xff, 0xa0, 0x01, 0x00, 0x00,
  0x44, 0xfa, 0xff, 0xff, 0x08, 0x00, 0x00, 0x00, 0x10, 0x00, 0x00, 0x00,
  0x01, 0x00, 0x00, 0x00, 0x80, 0xff, 0xff, 0xff, 0xff, 0xff, 0xff, 0xff,
  0x01, 0x00, 0x00, 0x00, 0x36, 0x07, 0xa0, 0x3b, 0x22, 0x00, 0x00, 0x00,
  0x73, 0x65, 0x71, 0x75, 0x65, 0x6e, 0x74, 0x69, 0x61, 0x6c, 0x5f, 0x32,
  0x5f, 0x31, 0x2f, 0x66, 0x6c, 0x61, 0x74, 0x74, 0x65, 0x6e, 0x5f, 0x32,
  0x5f, 0x31, 0x2f, 0x52, 0x65, 0x73, 0x68, 0x61, 0x70, 0x65, 0x00, 0x00,
  0x02, 0x00, 0x00, 0x00, 0x01, 0x00, 0x00, 0x00, 0xa0, 0x01, 0x00, 0x00,
  0x8e, 0xfe, 0xff, 0xff, 0x00, 0x00, 0x00, 0x01, 0x18, 0x00, 0x00, 0x00,
  0x28, 0x00, 0x00, 0x00, 0x44, 0x00, 0x00, 0x00, 0x0b, 0x00, 0x00, 0x00,
  0x00, 0x00, 0x00, 0x09, 0x68, 0x00, 0x00, 0x00, 0x04, 0x00, 0x00, 0x00,
  0xff, 0xff, 0xff, 0xff, 0x34, 0x00, 0x00, 0x00, 0x01, 0x00, 0x00, 0x00,
  0x08, 0x00, 0x00, 0x00, 0xcc, 0xfa, 0xff, 0xff, 0x08, 0x00, 0x00, 0x00,
  0x10, 0x00, 0x00, 0x00, 0x01, 0x00, 0x00, 0x00, 0x80, 0xff, 0xff, 0xff,
  0xff, 0xff, 0xff, 0xff, 0x01, 0x00, 0x00, 0x00, 0x36, 0x07, 0xa0, 0x3b,
  0x2a, 0x00, 0x00, 0x00, 0x73, 0x65, 0x71, 0x75, 0x65, 0x6e, 0x74, 0x69,
  0x61, 0x6c, 0x5f, 0x32, 0x5f, 0x31, 0x2f, 0x6d, 0x61, 0x78, 0x5f, 0x70,
  0x6f, 0x6f, 0x6c, 0x69, 0x6e, 0x67, 0x32, 0x64, 0x5f, 0x32, 0x5f, 0x31,
  0x2f, 0x4d, 0x61, 0x78, 0x50, 0x6f, 0x6f, 0x6c, 0x32, 0x64, 0x00, 0x00,
  0x04, 0x00, 0x00, 0x00, 0x01, 0x00, 0x00, 0x00, 0x34, 0x00, 0x00, 0x00,
  0x01, 0x00, 0x00, 0x00, 0x08, 0x00, 0x00, 0x00, 0x26, 0xff, 0xff, 0xff,
  0x00, 0x00, 0x00, 0x01, 0x18, 0x00, 0x00, 0x00, 0x28, 0x00, 0x00, 0x00,
  0x48, 0x00, 0x00, 0x00, 0x0a, 0x00, 0x00, 0x00, 0x00, 0x00, 0x00, 0x09,
  0xa8, 0x00, 0x00, 0x00, 0x04, 0x00, 0x00, 0x00, 0xff, 0xff, 0xff, 0xff,
  0x68, 0x00, 0x00, 0x00, 0x06, 0x00, 0x00, 0x00, 0x08, 0x00, 0x00, 0x00,
  0x64, 0xfb, 0xff, 0xff, 0x08, 0x00, 0x00, 0x00, 0x14, 0x00, 0x00, 0x00,
  0x01, 0x00, 0x00, 0x00, 0x80, 0xff, 0xff, 0xff, 0xff, 0xff, 0xff, 0xff,
  0x00, 0x00, 0x00, 0x00, 0x01, 0x00, 0x00, 0x00, 0x36, 0x07, 0xa0, 0x3b,
  0x64, 0x00, 0x00, 0x00, 0x73, 0x65, 0x71, 0x75, 0x65, 0x6e, 0x74, 0x69,
  0x61, 0x6c, 0x5f, 0x32, 0x5f, 0x31, 0x2f, 0x63, 0x6f, 0x6e, 0x76, 0x32,
  0x64, 0x5f, 0x32, 0x5f, 0x31, 0x2f, 0x52, 0x65, 0x6c, 0x75, 0x3b, 0x73,
  0x65, 0x71, 0x75, 0x65, 0x6e, 0x74, 0x69, 0x61, 0x6c, 0x5f, 0x32, 0x5f,
  0x31, 0x2f, 0x63, 0x6f, 0x6e, 0x76, 0x32, 0x64, 0x5f, 0x32, 0x5f, 0x31,
  0x2f, 0x61, 0x64, 0x64, 0x3b, 0x73, 0x65, 0x71, 0x75, 0x65, 0x6e, 0x74,
  0x69, 0x61, 0x6c, 0x5f, 0x32, 0x5f, 0x31, 0x2f, 0x63, 0x6f, 0x6e, 0x76,
  0x32, 0x64, 0x5f, 0x32, 0x5f, 0x31, 0x2f, 0x63, 0x6f, 0x6e, 0x76, 0x6f,
  0x6c, 0x75, 0x74, 0x69, 0x6f, 0x6e, 0x3b, 0x31, 0x00, 0x00, 0x00, 0x00,
  0x04, 0x00, 0x00, 0x00, 0x01, 0x00, 0x00, 0x00, 0x68, 0x00, 0x00, 0x00,
  0x06, 0x00, 0x00, 0x00, 0x08, 0x00, 0x00, 0x00, 0x00, 0x00, 0x16, 0x00,
  0x20, 0x00, 0x1c, 0x00, 0x1b, 0x00, 0x14, 0x00, 0x10, 0x00, 0x0c, 0x00,
  0x00, 0x00, 0x00, 0x00, 0x08, 0x00, 0x07, 0x00, 0x16, 0x00, 0x00, 0x00,
  0x00, 0x00, 0x00, 0x01, 0x18, 0x00, 0x00, 0x00, 0x28, 0x00, 0x00, 0x00,
  0x48, 0x00, 0x00, 0x00, 0x09, 0x00, 0x00, 0x00, 0x00, 0x00, 0x00, 0x09,
  0x50, 0x00, 0x00, 0x00, 0x04, 0x00, 0x00, 0x00, 0xff, 0xff, 0xff, 0xff,
  0x68, 0x00, 0x00, 0x00, 0x06, 0x00, 0x00, 0x00, 0x01, 0x00, 0x00, 0x00,
  0x54, 0xfc, 0xff, 0xff, 0x08, 0x00, 0x00, 0x00, 0x14, 0x00, 0x00, 0x00,
  0x01, 0x00, 0x00, 0x00, 0x80, 0xff, 0xff, 0xff, 0xff, 0xff, 0xff, 0xff,
  0x00, 0x00, 0x00, 0x00, 0x01, 0x00, 0x00, 0x00, 0x81, 0x80, 0x80, 0x3b,
  0x0c, 0x00, 0x00, 0x00, 0x74, 0x66, 0x6c, 0x2e, 0x71, 0x75, 0x61, 0x6e,
  0x74, 0x69, 0x7a, 0x65, 0x00, 0x00, 0x00, 0x00, 0x04, 0x00, 0x00, 0x00,
  0x01, 0x00, 0x00, 0x00, 0x68, 0x00, 0x00, 0x00, 0x06, 0x00, 0x00, 0x00,
  0x01, 0x00, 0x00, 0x00, 0x42, 0xfc, 0xff, 0xff, 0x00, 0x00, 0x00, 0x01,
  0x14, 0x00, 0x00, 0x00, 0x88, 0x00, 0x00, 0x00, 0x08, 0x00, 0x00, 0x00,
  0x00, 0x00, 0x00, 0x09, 0x94, 0x00, 0x00, 0x00, 0xbc, 0xfc, 0xff, 0xff,
  0x08, 0x00, 0x00, 0x00, 0x4c, 0x00, 0x00, 0x00, 0x08, 0x00, 0x00, 0x00,
  0x00, 0x00, 0x00, 0x00, 0x00, 0x00, 0x00, 0x00, 0x00, 0x00, 0x00, 0x00,
  0x00, 0x00, 0x00, 0x00, 0x00, 0x00, 0x00, 0x00, 0x00, 0x00, 0x00, 0x00,
  0x00, 0x00, 0x00, 0x00, 0x00, 0x00, 0x00, 0x00, 0x00, 0x00, 0x00, 0x00,
  0x00, 0x00, 0x00, 0x00, 0x00, 0x00, 0x00, 0x00, 0x00, 0x00, 0x00, 0x00,
  0x00, 0x00, 0x00, 0x00, 0x00, 0x00, 0x00, 0x00, 0x00, 0x00, 0x00, 0x00,
  0x00, 0x00, 0x00, 0x00, 0x00, 0x00, 0x00, 0x00, 0x08, 0x00, 0x00, 0x00,
  0x57, 0x56, 0xbd, 0x3a, 0xa4, 0x0b, 0xa1, 0x3a, 0xfc, 0x21, 0xac, 0x3a,
  0x5f, 0x15, 0x99, 0x3a, 0xaf, 0x2c, 0xb2, 0x3a, 0xc8, 0xda, 0xa6, 0x3a,
  0x7b, 0x7d, 0x86, 0x3a, 0xf3, 0x7b, 0xaa, 0x3a, 0x12, 0x00, 0x00, 0x00,
  0x74, 0x66, 0x6c, 0x2e, 0x70, 0x73, 0x65, 0x75, 0x64, 0x6f, 0x5f, 0x71,
  0x63, 0x6f, 0x6e, 0x73, 0x74, 0x35, 0x00, 0x00, 0x04, 0x00, 0x00, 0x00,
  0x08, 0x00, 0x00, 0x00, 0x14, 0x00, 0x00, 0x00, 0x03, 0x00, 0x00, 0x00,
  0x01, 0x00, 0x00, 0x00, 0x02, 0xfd, 0xff, 0xff, 0x00, 0x00, 0x00, 0x01,
  0x14, 0x00, 0x00, 0x00, 0x84, 0x00, 0x00, 0x00, 0x07, 0x00, 0x00, 0x00,
  0x00, 0x00, 0x00, 0x02, 0x90, 0x00, 0x00, 0x00, 0x7c, 0xfd, 0xff, 0xff,
  0x08, 0x00, 0x00, 0x00, 0x48, 0x00, 0x00, 0x00, 0x08, 0x00, 0x00, 0x00,
  0x00, 0x00, 0x00, 0x00, 0x00, 0x00, 0x00, 0x00, 0x00, 0x00, 0x00, 0x00,
  0x00, 0x00, 0x00, 0x00, 0x00, 0x00, 0x00, 0x00, 0x00, 0x00, 0x00, 0x00,
  0x00, 0x00, 0x00, 0x00, 0x00, 0x00, 0x00, 0x00, 0x00, 0x00, 0x00, 0x00,
  0x00, 0x00, 0x00, 0x00, 0x00, 0x00, 0x00, 0x00, 0x00, 0x00, 0x00, 0x00,
  0x00, 0x00, 0x00, 0x00, 0x00, 0x00, 0x00, 0x00, 0x00, 0x00, 0x00, 0x00,
  0x00, 0x00, 0x00, 0x00, 0x08, 0x00, 0x00, 0x00, 0x6c, 0x14, 0xbe, 0x36,
  0x52, 0xad, 0xa1, 0x36, 0xcb, 0xce, 0xac, 0x36, 0x0f, 0xaf, 0x99, 0x36,
  0x8f, 0xdf, 0xb2, 0x36, 0x4b, 0x82, 0xa7, 0x36, 0x80, 0x04, 0x87, 0x36,
  0x1b, 0x27, 0xab, 0x36, 0x12, 0x00, 0x00, 0x00, 0x74, 0x66, 0x6c, 0x2e,
  0x70, 0x73, 0x65, 0x75, 0x64, 0x6f, 0x5f, 0x71, 0x63, 0x6f, 0x6e, 0x73,
  0x74, 0x34, 0x00, 0x00, 0x01, 0x00, 0x00, 0x00, 0x08, 0x00, 0x00, 0x00,
  0xb2, 0xfd, 0xff, 0xff, 0x00, 0x00, 0x00, 0x01, 0x14, 0x00, 0x00, 0x00,
  0x88, 0x00, 0x00, 0x00, 0x06, 0x00, 0x00, 0x00, 0x00, 0x00, 0x00, 0x09,
  0x94, 0x00, 0x00, 0x00, 0x2c, 0xfe, 0xff, 0xff, 0x08, 0x00, 0x00, 0x00,
  0x4c, 0x00, 0x00, 0x00, 0x08, 0x00, 0x00, 0x00, 0x00, 0x00, 0x00, 0x00,
  0x00, 0x00, 0x00, 0x00, 0x00, 0x00, 0x00, 0x00, 0x00, 0x00, 0x00, 0x00,
  0x00, 0x00, 0x00, 0x00, 0x00, 0x00, 0x00, 0x00, 0x00, 0x00, 0x00, 0x00,
  0x00, 0x00, 0x00, 0x00, 0x00, 0x00, 0x00, 0x00, 0x00, 0x00, 0x00, 0x00,
  0x00, 0x00, 0x00, 0x00, 0x00, 0x00, 0x00, 0x00, 0x00, 0x00, 0x00, 0x00,
  0x00, 0x00, 0x00, 0x00, 0x00, 0x00, 0x00, 0x00, 0x00, 0x00, 0x00, 0x00,
  0x00, 0x00, 0x00, 0x00, 0x08, 0x00, 0x00, 0x00, 0xaf, 0x6e, 0x80, 0x3a,
  0x65, 0xc7, 0x6c, 0x3b, 0x29, 0xab, 0x30, 0x3b, 0x17, 0x3c, 0x6a, 0x3b,
  0x5d, 0x48, 0x47, 0x3b, 0xa9, 0x7f, 0x83, 0x3a, 0x8f, 0xa0, 0x82, 0x3a,
  0x7f, 0xff, 0x4c, 0x3b, 0x12, 0x00, 0x00, 0x00, 0x74, 0x66, 0x6c, 0x2e,
  0x70, 0x73, 0x65, 0x75, 0x64, 0x6f, 0x5f, 0x71, 0x63, 0x6f, 0x6e, 0x73,
  0x74, 0x33, 0x00, 0x00, 0x02, 0x00, 0x00, 0x00, 0x08, 0x00, 0x00, 0x00,
  0xa0, 0x01, 0x00, 0x00, 0x6a, 0xfe, 0xff, 0xff, 0x00, 0x00, 0x00, 0x01,
  0x14, 0x00, 0x00, 0x00, 0x84, 0x00, 0x00, 0x00, 0x05, 0x00, 0x00, 0x00,
  0x00, 0x00, 0x00, 0x02, 0x90, 0x00, 0x00, 0x00, 0xe4, 0xfe, 0xff, 0xff,
  0x08, 0x00, 0x00, 0x00, 0x48, 0x00, 0x00, 0x00, 0x08, 0x00, 0x00, 0x00,
  0x00, 0x00, 0x00, 0x00, 0x00, 0x00, 0x00, 0x00, 0x00, 0x00, 0x00, 0x00,
  0x00, 0x00, 0x00, 0x00, 0x00, 0x00, 0x00, 0x00, 0x00, 0x00, 0x00, 0x00,
  0x00, 0x00, 0x00, 0x00, 0x00, 0x00, 0x00, 0x00, 0x00, 0x00, 0x00, 0x00,
  0x00, 0x00, 0x00, 0x00, 0x00, 0x00, 0x00, 0x00, 0x00, 0x00, 0x00, 0x00,
  0x00, 0x00, 0x00, 0x00, 0x00, 0x00, 0x00, 0x00, 0x00, 0x00, 0x00, 0x00,
  0x00, 0x00, 0x00, 0x00, 0x08, 0x00, 0x00, 0x00, 0x97, 0x91, 0xa0, 0x36,
  0x4b, 0x03, 0x94, 0x37, 0xe7, 0xdf, 0x5c, 0x37, 0x27, 0x6c, 0x92, 0x37,
  0xae, 0x25, 0x79, 0x37, 0xfc, 0x66, 0xa4, 0x36, 0x0f, 0x50, 0xa3, 0x36,
  0x76, 0x25, 0x80, 0x37, 0x12, 0x00, 0x00, 0x00, 0x74, 0x66, 0x6c, 0x2e,
  0x70, 0x73, 0x65, 0x75, 0x64, 0x6f, 0x5f, 0x71, 0x63, 0x6f, 0x6e, 0x73,
  0x74, 0x32, 0x00, 0x00, 0x01, 0x00, 0x00, 0x00, 0x08, 0x00, 0x00, 0x00,
  0x1a, 0xff, 0xff, 0xff, 0x00, 0x00, 0x00, 0x01, 0x14, 0x00, 0x00, 0x00,
  0x3c, 0x00, 0x00, 0x00, 0x04, 0x00, 0x00, 0x00, 0x00, 0x00, 0x00, 0x09,
  0x48, 0x00, 0x00, 0x00, 0x94, 0xff, 0xff, 0xff, 0x08, 0x00, 0x00, 0x00,
  0x18, 0x00, 0x00, 0x00, 0x02, 0x00, 0x00, 0x00, 0x00, 0x00, 0x00, 0x00,
  0x00, 0x00, 0x00, 0x00, 0x00, 0x00, 0x00, 0x00, 0x00, 0x00, 0x00, 0x00,
  0x02, 0x00, 0x00, 0x00, 0x6f, 0x25, 0x07, 0x3c, 0xd6, 0xe4, 0xec, 0x3b,
  0x12, 0x00, 0x00, 0x00, 0x74, 0x66, 0x6c, 0x2e, 0x70, 0x73, 0x65, 0x75,
  0x64, 0x6f, 0x5f, 0x71, 0x63, 0x6f, 0x6e, 0x73, 0x74, 0x31, 0x00, 0x00,
  0x02, 0x00, 0x00, 0x00, 0x02, 0x00, 0x00, 0x00, 0x08, 0x00, 0x00, 0x00,
  0x86, 0xff, 0xff, 0xff, 0x00, 0x00, 0x00, 0x01, 0x20, 0x00, 0x00, 0x00,
  0x4c, 0x00, 0x00, 0x00, 0x03, 0x00, 0x00, 0x00, 0x00, 0x00, 0x00, 0x02,
  0x58, 0x00, 0x00, 0x00, 0x0c, 0x00, 0x0c, 0x00, 0x00, 0x00, 0x00, 0x00,
  0x08, 0x00, 0x04, 0x00, 0x0c, 0x00, 0x00, 0x00, 0x08, 0x00, 0x00, 0x00,
  0x1c, 0x00, 0x00, 0x00, 0x02, 0x00, 0x00, 0x00, 0x00, 0x00, 0x00, 0x00,
  0x00, 0x00, 0x00, 0x00, 0x00, 0x00, 0x00, 0x00, 0x00, 0x00, 0x00, 0x00,
  0x00, 0x00, 0x00, 0x00, 0x02, 0x00, 0x00, 0x00, 0x6e, 0xdb, 0x47, 0x39,
  0x72, 0x29, 0x2f, 0x39, 0x11, 0x00, 0x00, 0x00, 0x74, 0x66, 0x6c, 0x2e,
  0x70, 0x73, 0x65, 0x75, 0x64, 0x6f, 0x5f, 0x71, 0x63, 0x6f, 0x6e, 0x73,
  0x74, 0x00, 0x00, 0x00, 0x01, 0x00, 0x00, 0x00, 0x02, 0x00, 0x00, 0x00,
  0x00, 0x00, 0x16, 0x00, 0x1c, 0x00, 0x18, 0x00, 0x17, 0x00, 0x10, 0x00,
  0x0c, 0x00, 0x08, 0x00, 0x00, 0x00, 0x00, 0x00, 0x00, 0x00, 0x07, 0x00,
  0x16, 0x00, 0x00, 0x00, 0x00, 0x00, 0x00, 0x01, 0x14, 0x00, 0x00, 0x00,
  0x14, 0x00, 0x00, 0x00, 0x02, 0x00, 0x00, 0x00, 0x00, 0x00, 0x00, 0x02,
  0x1c, 0x00, 0x00, 0x00, 0x98, 0xff, 0xff, 0xff, 0x0e, 0x00, 0x00, 0x00,
  0x61, 0x72, 0x69, 0x74, 0x68, 0x2e, 0x63, 0x6f, 0x6e, 0x73, 0x74, 0x61,
  0x6e, 0x74, 0x00, 0x00, 0x01, 0x00, 0x00, 0x00, 0x02, 0x00, 0x00, 0x00,
  0x00, 0x00, 0x16, 0x00, 0x1c, 0x00, 0x18, 0x00, 0x00, 0x00, 0x14, 0x00,
  0x10, 0x00, 0x0c, 0x00, 0x00, 0x00, 0x00, 0x00, 0x08, 0x00, 0x07, 0x00,
  0x16, 0x00, 0x00, 0x00, 0x00, 0x00, 0x00, 0x01, 0x14, 0x00, 0x00, 0x00,
  0x28, 0x00, 0x00, 0x00, 0x28, 0x00, 0x00, 0x00, 0x01, 0x00, 0x00, 0x00,
  0x48, 0x00, 0x00, 0x00, 0x04, 0x00, 0x00, 0x00, 0xff, 0xff, 0xff, 0xff,
  0x68, 0x00, 0x00, 0x00, 0x06, 0x00, 0x00, 0x00, 0x01, 0x00, 0x00, 0x00,
  0x04, 0x00, 0x04, 0x00, 0x04, 0x00, 0x00, 0x00, 0x21, 0x00, 0x00, 0x00,
  0x73, 0x65, 0x72, 0x76, 0x69, 0x6e, 0x67, 0x5f, 0x64, 0x65, 0x66, 0x61,
  0x75, 0x6c, 0x74, 0x5f, 0x6b, 0x65, 0x72, 0x61, 0x73, 0x5f, 0x74, 0x65,
  0x6e, 0x73, 0x6f, 0x72, 0x5f, 0x34, 0x34, 0x3a, 0x30, 0x00, 0x00, 0x00,
  0x04, 0x00, 0x00, 0x00, 0x01, 0x00, 0x00, 0x00, 0x68, 0x00, 0x00, 0x00,
  0x06, 0x00, 0x00, 0x00, 0x01, 0x00, 0x00, 0x00, 0x07, 0x00, 0x00, 0x00,
  0x90, 0x00, 0x00, 0x00, 0x70, 0x00, 0x00, 0x00, 0x50, 0x00, 0x00, 0x00,
  0x40, 0x00, 0x00, 0x00, 0x2c, 0x00, 0x00, 0x00, 0x18, 0x00, 0x00, 0x00,
  0x04, 0x00, 0x00, 0x00, 0xb4, 0xff, 0xff, 0xff, 0x06, 0x00, 0x00, 0x00,
  0x02, 0x00, 0x00, 0x00, 0x00, 0x00, 0x00, 0x06, 0xc4, 0xff, 0xff, 0xff,
  0x19, 0x00, 0x00, 0x00, 0x02, 0x00, 0x00, 0x00, 0x00, 0x00, 0x00, 0x19,
  0xd4, 0xff, 0xff, 0xff, 0x09, 0x00, 0x00, 0x00, 0x04, 0x00, 0x00, 0x00,
  0x00, 0x00, 0x00, 0x09, 0xc8, 0xff, 0xff, 0xff, 0x16, 0x00, 0x00, 0x00,
  0x00, 0x00, 0x00, 0x16, 0xf0, 0xff, 0xff, 0xff, 0x11, 0x00, 0x00, 0x00,
  0x02, 0x00, 0x00, 0x00, 0x00, 0x00, 0x00, 0x11, 0x0c, 0x00, 0x10, 0x00,
  0x0f, 0x00, 0x00, 0x00, 0x08, 0x00, 0x04, 0x00, 0x0c, 0x00, 0x00, 0x00,
  0x03, 0x00, 0x00, 0x00, 0x03, 0x00, 0x00, 0x00, 0x00, 0x00, 0x00, 0x03,
  0x0c, 0x00, 0x0c, 0x00, 0x0b, 0x00, 0x00, 0x00, 0x00, 0x00, 0x04, 0x00,
  0x0c, 0x00, 0x00, 0x00, 0x72, 0x00, 0x00, 0x00, 0x00, 0x00, 0x00, 0x72
};
